<unk>	0
<s>	0
</s>	0
▁.	-2.62705
▁,	-2.73798
▁!	-3.17011
▁i	-3.31711
▁you	-3.42578
▁?	-3.61161
▁to	-3.92058
▁the	-4.10244
▁it	-4.14713
▁is	-4.27857
▁a	-4.27953
▁that	-4.30715
▁and	-4.42978
▁not	-4.59817
▁oh	-4.60953
▁what	-4.63012
▁s	-4.68547
▁no	-4.85307
▁do	-4.88266
▁we	-4.88642
▁this	-4.95827
▁know	-4.95962
▁okay	-4.98535
▁are	-4.98702
▁t	-5.02006
▁me	-5.02408
▁of	-5.03074
▁just	-5.03393
▁my	-5.06889
▁so	-5.07524
▁yeah	-5.08776
▁have	-5.13044
▁in	-5.17703
▁going	-5.24622
▁hey	-5.29038
▁well	-5.31784
▁can	-5.32482
▁was	-5.3256
▁on	-5.36131
▁all	-5.39498
▁right	-5.41951
▁with	-5.42037
▁for	-5.43896
▁I	-5.43983
▁am	-5.44949
▁be	-5.46058
▁but	-5.46192
▁m	-5.51089
▁she	-5.5404
▁he	-5.58941
▁like	-5.62242
▁get	-5.65982
▁your	-5.68127
▁there	-5.72446
▁about	-5.76717
▁out	-5.78676
▁really	-5.7967
▁re	-5.7992
▁did	-5.8017
▁go	-5.8017
▁don	-5.81179
▁want	-5.81369
▁uh	-5.83163
▁here	-5.85584
▁her	-5.85916
▁got	-5.88405
▁if	-5.88678
▁think	-5.90609
▁up	-5.90888
▁how	-5.91941
▁look	-5.9671
▁would	-5.99716
▁mean	-6.01408
▁at	-6.01641
▁now	-6.05931
▁they	-6.06012
▁one	-6.06746
▁ross	-6.11523
▁will	-6.1591
▁come	-6.16269
▁see	-6.17082
▁god	-6.17811
▁why	-6.18361
▁good	-6.21062
▁because	-6.26895
▁guys	-6.32982
▁him	-6.36556
▁y	-6.38
▁joey	-6.39465
▁when	-6.41645
▁who	-6.41761
▁sorry	-6.4246
▁great	-6.44469
▁let	-6.4762
▁y'know	-6.4762
▁then	-6.48486
▁could	-6.4886
▁were	-6.4936
▁yes	-6.52026
▁chandler	-6.53322
▁tell	-6.53452
▁say	-6.53845
▁time	-6.5583
▁us	-6.55964
▁hi	-6.56636
▁monica	-6.59784
▁little	-6.59924
▁ll	-6.60482
▁back	-6.61609
▁wait	-6.66992
▁rachel	-6.68347
▁them	-6.69566
▁too	-6.70027
▁had	-6.70491
▁thing	-6.71268
▁some	-6.7158
▁something	-6.7158
▁or	-6.72523
▁umm	-6.72682
▁love	-6.75246
▁should	-6.77878
▁phoebe	-6.78883
▁an	-6.7922
▁maybe	-6.79898
▁guy	-6.82832
▁ok	-6.84598
▁from	-6.84777
▁make	-6.87126
▁take	-6.88414
▁doing	-6.90472
▁huh	-6.91421
▁been	-6.91612
▁ve	-6.9296
▁over	-6.93543
▁said	-6.93934
▁way	-6.94719
▁as	-6.94917
▁never	-6.97926
▁sure	-6.97926
▁where	-6.97926
▁does	-7.03798
▁much	-7.04448
▁thank	-7.05102
▁didn	-7.05981
▁please	-7.06202
▁down	-7.06868
▁wow	-7.07539
▁ah	-7.08439
▁our	-7.09121
▁give	-7.10036
▁kind	-7.12127
▁big	-7.12833
▁his	-7.12833
▁two	-7.13307
▁people	-7.14502
▁still	-7.14502
▁more	-7.14743
▁man	-7.15468
▁need	-7.15711
▁first	-7.16199
▁believe	-7.16444
▁fine	-7.17429
▁thought	-7.17429
▁even	-7.17677
▁again	-7.18424
▁off	-7.23028
▁very	-7.24081
▁by	-7.24346
▁talk	-7.24612
▁work	-7.2622
▁baby	-7.27307
▁anything	-7.28683
▁listen	-7.29797
▁actually	-7.30641
▁has	-7.3235
▁night	-7.32927
▁any	-7.33797
▁ooh	-7.37661
▁these	-7.37965
▁um	-7.40426
▁thanks	-7.40738
▁feel	-7.41051
▁stuff	-7.42631
▁d	-7.4295
▁only	-7.4327
▁new	-7.44236
▁day	-7.44886
▁call	-7.45539
▁nice	-7.45539
▁pheebs	-7.46528
▁other	-7.46859
▁rach	-7.48197
▁ohh	-7.49213
▁before	-7.50582
▁ever	-7.50582
▁put	-7.50582
▁whoa	-7.51274
▁nothing	-7.51622
▁together	-7.51971
▁those	-7.52673
▁honey	-7.53735
▁last	-7.54092
▁guess	-7.54449
▁stop	-7.5553
▁bad	-7.57728
▁'	-7.58846
▁better	-7.59597
▁getting	-7.59597
▁told	-7.59976
▁talking	-7.61888
▁having	-7.62275
▁into	-7.63444
▁married	-7.63444
▁hello	-7.63837
▁remember	-7.66228
▁play	-7.67445
▁room	-7.67854
▁things	-7.67854
▁place	-7.68264
▁help	-7.69924
▁made	-7.70764
▁alright	-7.71612
▁around	-7.71612
▁girl	-7.72038
▁lot	-7.72038
▁wanted	-7.72897
▁bye	-7.73329
▁best	-7.73763
▁minute	-7.73763
▁ya	-7.75517
▁friend	-7.76406
▁happened	-7.78208
▁wedding	-7.78208
▁went	-7.79121
▁pretty	-7.79581
▁someone	-7.80043
▁woman	-7.80507
▁ask	-7.80973
▁always	-7.82385
▁than	-7.82385
▁everything	-7.8286
▁wrong	-7.83337
▁fun	-7.83817
▁long	-7.83817
▁name	-7.86744
▁friends	-7.88744
▁happy	-7.89759
▁tonight	-7.90271
▁doesn	-7.91821
▁sex	-7.91821
▁date	-7.92343
▁hear	-7.92343
▁keep	-7.92343
▁thinking	-7.92343
▁which	-7.92343
▁else	-7.93396
▁coming	-7.93926
▁find	-7.9446
▁three	-7.94996
▁totally	-7.94996
▁after	-7.96622
▁left	-7.96622
▁game	-7.9717
▁care	-7.97721
▁old	-7.98832
▁today	-7.98832
▁hard	-7.99392
▁home	-7.99956
▁job	-7.99956
▁away	-8.00522
▁try	-8.00522
▁apartment	-8.01092
▁stupid	-8.01092
▁ready	-8.02241
▁done	-8.03404
▁money	-8.03991
▁whole	-8.03991
▁funny	-8.04581
▁weird	-8.04581
▁life	-8.05174
▁another	-8.06372
▁crazy	-8.07584
▁second	-8.07584
▁looking	-8.08811
▁idea	-8.10053
▁mom	-8.1068
▁stay	-8.1068
▁next	-8.11311
▁probably	-8.11311
▁years	-8.11311
▁being	-8.12585
▁trying	-8.12585
▁won	-8.12585
▁dad	-8.13228
▁part	-8.13228
▁check	-8.13875
▁leave	-8.14527
▁year	-8.14527
▁start	-8.15182
▁head	-8.15843
▁happen	-8.16507
▁party	-8.16507
▁called	-8.17176
▁tomorrow	-8.17176
▁saying	-8.18527
▁anyway	-8.19897
▁every	-8.19897
▁through	-8.20589
▁break	-8.21286
▁course	-8.21286
▁everybody	-8.21286
▁saw	-8.21286
▁supposed	-8.21286
▁pick	-8.22694
▁already	-8.24123
▁move	-8.24123
▁phone	-8.24123
▁cool	-8.24845
▁enough	-8.24845
▁ha	-8.24845
▁live	-8.24845
▁yet	-8.24845
▁their	-8.25572
▁deal	-8.26305
▁might	-8.26305
▁wants	-8.27043
▁knew	-8.27786
▁took	-8.27786
▁came	-8.28536
▁hand	-8.2929
▁hell	-8.2929
▁since	-8.2929
▁use	-8.2929
▁matter	-8.30051
▁dinner	-8.31589
▁eat	-8.31589
▁show	-8.31589
▁anymore	-8.32368
▁same	-8.32368
▁used	-8.32368
▁such	-8.34739
▁problem	-8.35542
▁while	-8.35542
▁also	-8.36352
▁each	-8.36352
▁found	-8.36352
▁myself	-8.36352
▁couple	-8.37168
▁excuse	-8.37168
▁emma	-8.38821
▁hot	-8.38821
▁gets	-8.39658
▁house	-8.39658
▁meet	-8.39658
▁watch	-8.39658
▁emily	-8.40502
▁forget	-8.40502
▁hate	-8.40502
▁own	-8.40502
▁hmm	-8.41353
▁real	-8.41353
▁five	-8.42212
▁may	-8.42212
▁somebody	-8.42212
▁looks	-8.43077
▁:	-8.44832
▁naked	-8.44832
▁ben	-8.45721
▁gave	-8.45721
▁hold	-8.46618
▁movie	-8.46618
▁everyone	-8.47522
▁miss	-8.47522
▁morning	-8.47522
▁serious	-8.47522
▁person	-8.48436
▁beautiful	-8.49357
▁mine	-8.49357
▁boy	-8.50288
▁win	-8.50288
▁cute	-8.51227
▁moving	-8.51227
▁sweet	-8.51227
▁both	-8.52174
▁dude	-8.52174
▁later	-8.52174
▁means	-8.52174
▁pants	-8.52174
▁telling	-8.52174
▁food	-8.53131
▁amazing	-8.54098
▁bring	-8.54098
▁mind	-8.54098
▁question	-8.54098
▁bet	-8.55073
▁must	-8.55073
▁seen	-8.55073
▁isn	-8.56059
▁kiss	-8.56059
▁late	-8.56059
▁says	-8.56059
▁yourself	-8.56059
▁making	-8.57053
▁four	-8.58059
▁mad	-8.58059
▁makes	-8.58059
▁minutes	-8.58059
▁taking	-8.58059
▁once	-8.59074
▁though	-8.60099
▁face	-8.61136
▁heard	-8.61136
▁most	-8.61136
▁sleep	-8.61136
▁understand	-8.61136
▁sister	-8.62183
▁alone	-8.63241
▁important	-8.63241
▁kidding	-8.63241
▁open	-8.63241
▁coffee	-8.64311
▁either	-8.64311
▁end	-8.64311
▁sounds	-8.64311
▁different	-8.65392
▁mon	-8.65392
▁high	-8.66485
▁ho	-8.66485
▁until	-8.66485
▁wouldn	-8.66485
▁bit	-8.6759
▁comes	-8.6759
▁father	-8.6759
▁wasn	-8.6759
▁half	-8.68707
▁ring	-8.68707
▁story	-8.68707
▁turn	-8.68707
▁hours	-8.69837
▁joe	-8.69837
▁lost	-8.69837
▁true	-8.69837
▁anybody	-8.7098
▁hair	-8.7098
▁number	-8.7098
▁ow	-8.7098
▁worry	-8.7098
▁ago	-8.72136
▁mr	-8.72136
▁pregnant	-8.72136
▁wish	-8.72136
▁hang	-8.73305
▁kids	-8.73305
▁perfect	-8.73305
▁table	-8.73305
▁walk	-8.73305
▁car	-8.74489
▁dog	-8.74489
▁easy	-8.74489
▁playing	-8.74489
▁sit	-8.74489
▁ugh	-8.74489
▁ahh	-8.75686
▁ass	-8.75686
▁bed	-8.75686
▁book	-8.75686
▁gone	-8.75686
▁uhh	-8.75686
▁wh	-8.75686
▁women	-8.75686
▁anyone	-8.76899
▁parents	-8.78126
▁six	-8.78126
▁without	-8.78126
▁picture	-8.79368
▁school	-8.79368
▁days	-8.80626
▁door	-8.80626
▁glad	-8.80626
▁office	-8.80626
▁relationship	-8.80626
▁seriously	-8.80626
▁started	-8.80626
▁wearing	-8.80626
▁chance	-8.819
▁close	-8.819
▁living	-8.819
▁run	-8.819
▁wear	-8.8319
▁whatever	-8.8319
▁hurt	-8.84497
▁kid	-8.84497
▁luck	-8.84497
▁uhm	-8.84497
▁card	-8.85822
▁change	-8.85822
▁geller	-8.85822
▁world	-8.85822
▁babies	-8.87164
▁broke	-8.87164
▁cannot	-8.87164
▁couldn	-8.87164
▁fact	-8.87164
▁hit	-8.87164
▁hope	-8.87164
▁least	-8.87164
▁mike	-8.87164
▁read	-8.87164
▁reason	-8.87164
▁times	-8.87164
▁audition	-8.88525
▁point	-8.88525
▁tv	-8.88525
▁exactly	-8.89904
▁girls	-8.89904
▁knows	-8.89904
▁goes	-8.91302
▁haven	-8.91302
▁huge	-8.92721
▁janice	-8.92721
▁many	-8.92721
▁sick	-8.92721
▁throw	-8.92721
▁almost	-8.9416
▁bathroom	-8.9416
▁birthday	-8.9416
▁buy	-8.9416
▁doctor	-8.9416
▁its	-8.9416
▁talked	-8.9416
▁week	-8.9416
▁asked	-8.9562
▁green	-8.9562
▁sweetie	-8.9562
▁word	-8.9562
▁hour	-8.97101
▁line	-8.97101
▁tickets	-8.97101
▁under	-8.97101
▁fire	-8.98605
▁rest	-8.98605
▁working	-8.98605
▁absolutely	-9.00132
▁answer	-9.00132
▁bing	-9.00132
▁christmas	-9.00132
▁dance	-9.00132
▁dress	-9.00132
▁lives	-9.00132
▁lose	-9.00132
▁sound	-9.00132
▁kill	-9.01682
▁met	-9.01682
▁terrible	-9.01682
▁between	-9.03257
▁free	-9.03257
▁lady	-9.03257
▁ice	-9.04857
▁marry	-9.04857
▁street	-9.04857
▁dollars	-9.06483
▁mother	-9.06483
▁thanksgiving	-9.06483
▁unless	-9.06483
▁wife	-9.06483
▁actor	-9.08136
▁bag	-9.08136
▁boyfriend	-9.08136
▁family	-9.08136
▁london	-9.08136
▁promise	-9.08136
▁set	-9.08136
▁ten	-9.08136
▁pay	-9.09817
▁yep	-9.09817
▁fault	-9.11526
▁forgot	-9.11526
▁marcel	-9.11526
▁definitely	-9.13265
▁finally	-9.13265
▁giving	-9.13265
▁news	-9.13265
▁cut	-9.15035
▁dead	-9.15035
▁die	-9.15035
▁eh	-9.15035
▁eyes	-9.15035
▁fat	-9.15035
▁front	-9.15035
▁marriage	-9.15035
▁weekend	-9.15035
▁box	-9.16837
▁carol	-9.16837
▁city	-9.16837
▁excited	-9.16837
▁machine	-9.16837
▁nobody	-9.16837
▁outside	-9.16837
▁relax	-9.16837
▁c'mon	-9.18672
▁damn	-9.18672
▁lunch	-9.18672
▁meant	-9.18672
▁mrs	-9.18672
▁present	-9.18672
▁seeing	-9.18672
▁smell	-9.18672
▁soon	-9.18672
▁weeks	-9.18672
▁yours	-9.18672
▁aren	-9.20541
▁clothes	-9.20541
▁feeling	-9.20541
▁fight	-9.20541
▁figure	-9.20541
▁looked	-9.20541
▁mark	-9.20541
▁plan	-9.20541
▁richard	-9.20541
▁sometimes	-9.20541
▁upset	-9.20541
▁worse	-9.20541
▁able	-9.22446
▁brother	-9.22446
▁dr	-9.22446
▁girlfriend	-9.22446
▁liked	-9.22446
▁ohhh	-9.22446
▁restaurant	-9.22446
▁asleep	-9.24388
▁eye	-9.24388
▁figured	-9.24388
▁hands	-9.24388
▁lie	-9.24388
▁seven	-9.24388
▁side	-9.24388
▁special	-9.24388
▁eight	-9.26368
▁message	-9.26368
▁tried	-9.26368
▁doin	-9.28389
▁dream	-9.28389
▁plane	-9.28389
▁questions	-9.28389
▁secret	-9.28389
▁seems	-9.28389
▁shut	-9.28389
▁store	-9.28389
▁thinks	-9.28389
▁touch	-9.28389
▁brought	-9.3045
▁class	-9.3045
▁drink	-9.3045
▁fast	-9.3045
▁kathy	-9.3045
▁months	-9.3045
▁scared	-9.3045
▁tape	-9.3045
▁top	-9.3045
▁watching	-9.3045
▁boss	-9.32556
▁calling	-9.32556
▁college	-9.32556
▁dressed	-9.32556
▁duck	-9.32556
▁feelings	-9.32556
▁kissed	-9.32556
▁la	-9.32556
▁seem	-9.32556
▁shot	-9.32556
▁apparently	-9.34706
▁blah	-9.34706
▁bucks	-9.34706
▁couch	-9.34706
▁finish	-9.34706
▁gay	-9.34706
▁roommate	-9.34706
▁sitting	-9.34706
▁song	-9.34706
▁surprise	-9.34706
▁welcome	-9.34706
▁aw	-9.36904
▁bought	-9.36904
▁cold	-9.36904
▁except	-9.36904
▁few	-9.36904
▁quit	-9.36904
▁ralph	-9.36904
▁sad	-9.36904
▁sandwich	-9.36904
▁slept	-9.36904
▁son	-9.36904
▁underwear	-9.36904
▁waiting	-9.36904
▁aww	-9.39152
▁feels	-9.39152
▁hat	-9.39152
▁leaving	-9.39152
▁needs	-9.39152
▁nope	-9.39152
▁pass	-9.39152
▁picked	-9.39152
▁presents	-9.39152
▁sexy	-9.39152
▁shouldn	-9.39152
▁tribbiani	-9.39152
▁york	-9.39152
▁along	-9.41451
▁daddy	-9.41451
▁dating	-9.41451
▁drunk	-9.41451
▁floor	-9.41451
▁forever	-9.41451
▁frank	-9.41451
▁freak	-9.41451
▁gift	-9.41451
▁men	-9.41451
▁obviously	-9.41451
▁shower	-9.41451
▁across	-9.43804
▁asking	-9.43804
▁cry	-9.43804
▁extra	-9.43804
▁gunther	-9.43804
▁likes	-9.43804
▁sent	-9.43804
▁stick	-9.43804
▁stuck	-9.43804
▁worked	-9.43804
▁yay	-9.43804
▁although	-9.46213
▁ball	-9.46213
▁body	-9.46213
▁calm	-9.46213
▁candy	-9.46213
▁chair	-9.46213
▁entire	-9.46213
▁heart	-9.46213
▁hundred	-9.46213
▁lauren	-9.46213
▁moment	-9.46213
▁month	-9.46213
▁paper	-9.46213
▁quick	-9.46213
▁rules	-9.46213
▁stand	-9.46213
▁third	-9.46213
▁turkey	-9.46213
▁water	-9.46213
▁wha	-9.46213
▁aunt	-9.48683
▁bigger	-9.48683
▁building	-9.48683
▁bunch	-9.48683
▁charlie	-9.48683
▁clock	-9.48683
▁fair	-9.48683
▁felt	-9.48683
▁grandmother	-9.48683
▁joke	-9.48683
▁learn	-9.48683
▁lying	-9.48683
▁monica's	-9.48683
▁shoes	-9.48683
▁sleeping	-9.48683
▁against	-9.51214
▁chick	-9.51214
▁correct	-9.51214
▁feet	-9.51214
▁goodbye	-9.51214
▁hall	-9.51214
▁loved	-9.51214
▁middle	-9.51214
▁ones	-9.51214
▁plus	-9.51214
▁small	-9.51214
▁weren	-9.51214
▁acting	-9.53812
▁bedroom	-9.53812
▁bitch	-9.53812
▁control	-9.53812
▁crying	-9.53812
▁grab	-9.53812
▁interesting	-9.53812
▁monkey	-9.53812
▁music	-9.53812
▁past	-9.53812
▁plans	-9.53812
▁ride	-9.53812
▁tough	-9.53812
▁butt	-9.56479
▁decided	-9.56479
▁early	-9.56479
▁gotten	-9.56479
▁horrible	-9.56479
▁hospital	-9.56479
▁husband	-9.56479
▁idiot	-9.56479
▁incredible	-9.56479
▁roll	-9.56479
▁send	-9.56479
▁sir	-9.56479
▁spend	-9.56479
▁swear	-9.56479
▁wondering	-9.56479
▁works	-9.56479
▁cat	-9.59219
▁comfortable	-9.59219
▁david	-9.59219
▁died	-9.59219
▁enjoy	-9.59219
▁fake	-9.59219
▁fall	-9.59219
▁flowers	-9.59219
▁lucky	-9.59219
▁moved	-9.59219
▁none	-9.59219
▁owe	-9.59219
▁santa	-9.59219
▁smart	-9.59219
▁starts	-9.59219
▁turns	-9.59219
▁unbelievable	-9.59219
▁words	-9.59219
▁yesterday	-9.59219
▁behind	-9.62036
▁buddy	-9.62036
▁cab	-9.62036
▁decide	-9.62036
▁guest	-9.62036
▁joshua	-9.62036
▁kitchen	-9.62036
▁missed	-9.62036
▁mistake	-9.62036
▁nervous	-9.62036
▁pete	-9.62036
▁seconds	-9.62036
▁takes	-9.62036
▁tiny	-9.62036
▁tired	-9.62036
▁vegas	-9.62036
▁wrote	-9.62036
▁bra	-9.64934
▁broken	-9.64934
▁cake	-9.64934
▁catch	-9.64934
▁credit	-9.64934
▁cup	-9.64934
▁far	-9.64934
▁full	-9.64934
▁happens	-9.64934
▁hug	-9.64934
▁invite	-9.64934
▁joey's	-9.64934
▁list	-9.64934
▁massage	-9.64934
▁milk	-9.64934
▁neither	-9.64934
▁paul	-9.64934
▁ran	-9.64934
▁save	-9.64934
▁sign	-9.64934
▁window	-9.64934
▁worst	-9.64934
▁afraid	-9.6792
▁ate	-9.6792
▁boat	-9.6792
▁borrow	-9.6792
▁congratulations	-9.6792
▁damnit	-9.6792
▁favorite	-9.6792
▁ladies	-9.6792
▁less	-9.6792
▁oooh	-9.6792
▁pee	-9.6792
▁pizza	-9.6792
▁sense	-9.6792
▁spent	-9.6792
▁straight	-9.6792
▁air	-9.70997
▁careful	-9.70997
▁chicken	-9.70997
▁engaged	-9.70997
▁happening	-9.70997
▁keys	-9.70997
▁single	-9.70997
▁soap	-9.70997
▁wonder	-9.70997
▁awful	-9.74172
▁completely	-9.74172
▁count	-9.74172
▁ew	-9.74172
▁excellent	-9.74172
▁hotel	-9.74172
▁instead	-9.74172
▁mess	-9.74172
▁noo	-9.74172
▁order	-9.74172
▁park	-9.74172
▁piece	-9.74172
▁realize	-9.74172
▁trip	-9.74172
▁trouble	-9.74172
▁twenty	-9.74172
▁woo	-9.74172
▁ahead	-9.77451
▁airport	-9.77451
▁appreciate	-9.77451
▁barry	-9.77451
▁besides	-9.77451
▁business	-9.77451
▁child	-9.77451
▁children	-9.77451
▁clear	-9.77451
▁cups	-9.77451
▁dear	-9.77451
▁drive	-9.77451
▁e	-9.77451
▁fancy	-9.77451
▁freaked	-9.77451
▁hanging	-9.77451
▁king	-9.77451
▁loud	-9.77451
▁needed	-9.77451
▁paid	-9.77451
▁played	-9.77451
▁raise	-9.77451
▁reading	-9.77451
▁red	-9.77451
▁scene	-9.77451
▁situation	-9.77451
▁sucks	-9.77451
▁teach	-9.77451
▁town	-9.77451
▁wine	-9.77451
▁write	-9.77451
▁buffay	-9.80841
▁career	-9.80841
▁case	-9.80841
▁coat	-9.80841
▁divorce	-9.80841
▁fridge	-9.80841
▁interview	-9.80841
▁invited	-9.80841
▁kick	-9.80841
▁kissing	-9.80841
▁leg	-9.80841
▁listening	-9.80841
▁op	-9.80841
▁pull	-9.80841
▁rid	-9.80841
▁seat	-9.80841
▁soo	-9.80841
▁star	-9.80841
▁susan	-9.80841
▁team	-9.80841
▁trust	-9.80841
▁wake	-9.80841
▁walking	-9.80841
▁apologize	-9.8435
▁assistant	-9.8435
▁bike	-9.8435
▁blue	-9.8435
▁boots	-9.8435
▁clean	-9.8435
▁club	-9.8435
▁dirty	-9.8435
▁divorced	-9.8435
▁jack	-9.8435
▁jokes	-9.8435
▁key	-9.8435
▁loves	-9.8435
▁meeting	-9.8435
▁names	-9.8435
▁notice	-9.8435
▁porn	-9.8435
▁propose	-9.8435
▁romantic	-9.8435
▁saturday	-9.8435
▁shhh	-9.8435
▁step	-9.8435
▁strong	-9.8435
▁turned	-9.8435
▁ugly	-9.8435
▁worried	-9.8435
▁worth	-9.8435
▁10	-9.87987
▁age	-9.87987
▁band	-9.87987
▁black	-9.87987
▁copy	-9.87987
▁ended	-9.87987
▁exciting	-9.87987
▁fell	-9.87987
▁handle	-9.87987
▁honeymoon	-9.87987
▁hoo	-9.87987
▁julie	-9.87987
▁kept	-9.87987
▁lived	-9.87987
▁nooo	-9.87987
▁professor	-9.87987
▁putting	-9.87987
▁ridiculous	-9.87987
▁running	-9.87987
▁shirt	-9.87987
▁shoe	-9.87987
▁smells	-9.87987
▁starting	-9.87987
▁switch	-9.87987
▁using	-9.87987
▁wonderful	-9.87987
▁bottle	-9.91761
▁cream	-9.91761
▁crush	-9.91761
▁dancing	-9.91761
▁ex	-9.91761
▁explain	-9.91761
▁fired	-9.91761
▁gosh	-9.91761
▁grade	-9.91761
▁grow	-9.91761
▁juice	-9.91761
▁laugh	-9.91761
▁lesbian	-9.91761
▁lights	-9.91761
▁maid	-9.91761
▁plate	-9.91761
▁purse	-9.91761
▁push	-9.91761
▁shh	-9.91761
▁speech	-9.91761
▁bunny	-9.95683
▁charge	-9.95683
▁chef	-9.95683
▁clearly	-9.95683
▁cookies	-9.95683
▁crap	-9.95683
▁double	-9.95683
▁favor	-9.95683
▁fix	-9.95683
▁gym	-9.95683
▁heads	-9.95683
▁honor	-9.95683
▁laundry	-9.95683
▁light	-9.95683
▁meat	-9.95683
▁million	-9.95683
▁mona	-9.95683
▁paris	-9.95683
▁proud	-9.95683
▁rent	-9.95683
▁speak	-9.95683
▁suck	-9.95683
▁twice	-9.95683
▁20	-9.99765
▁5	-9.99765
▁agent	-9.99765
▁angela	-9.99765
▁bath	-9.99765
▁calls	-9.99765
▁caught	-9.99765
▁china	-9.99765
▁conversation	-9.99765
▁cover	-9.99765
▁downstairs	-9.99765
▁foot	-9.99765
▁forgive	-9.99765
▁hurry	-9.99765
▁imagine	-9.99765
▁inside	-9.99765
▁jill	-9.99765
▁knicks	-9.99765
▁knock	-9.99765
▁mouth	-9.99765
▁pain	-9.99765
▁pretend	-9.99765
▁somewhere	-9.99765
▁sort	-9.99765
▁stole	-9.99765
▁sweater	-9.99765
▁threw	-9.99765
▁truth	-9.99765
▁walked	-9.99765
▁young	-9.99765
▁advice	-10.0402
▁allowed	-10.0402
▁beat	-10.0402
▁beer	-10.0402
▁choice	-10.0402
▁closet	-10.0402
▁company	-10.0402
▁department	-10.0402
▁drake	-10.0402
▁drop	-10.0402
▁eating	-10.0402
▁finished	-10.0402
▁giant	-10.0402
▁holiday	-10.0402
▁jealous	-10.0402
▁known	-10.0402
▁laughing	-10.0402
▁museum	-10.0402
▁nine	-10.0402
▁nose	-10.0402
▁ordered	-10.0402
▁pack	-10.0402
▁realise	-10.0402
▁realized	-10.0402
▁rock	-10.0402
▁ross's	-10.0402
▁ruined	-10.0402
▁scary	-10.0402
▁shoot	-10.0402
▁shopping	-10.0402
▁soup	-10.0402
▁swing	-10.0402
▁test	-10.0402
▁toast	-10.0402
▁white	-10.0402
▁barn	-10.0847
▁breasts	-10.0847
▁cards	-10.0847
▁cares	-10.0847
▁country	-10.0847
▁death	-10.0847
▁dunno	-10.0847
▁during	-10.0847
▁engagement	-10.0847
▁expect	-10.0847
▁future	-10.0847
▁hoping	-10.0847
▁hurts	-10.0847
▁interested	-10.0847
▁involved	-10.0847
▁nap	-10.0847
▁numbers	-10.0847
▁pictures	-10.0847
▁rather	-10.0847
▁regular	-10.0847
▁return	-10.0847
▁road	-10.0847
▁rule	-10.0847
▁short	-10.0847
▁sing	-10.0847
▁space	-10.0847
▁standing	-10.0847
▁staying	-10.0847
▁steal	-10.0847
▁tag	-10.0847
▁teacher	-10.0847
▁thursday	-10.0847
▁video	-10.0847
▁angry	-10.1312
▁anniversary	-10.1312
▁become	-10.1312
▁birds	-10.1312
▁birth	-10.1312
▁changed	-10.1312
▁closer	-10.1312
▁cousin	-10.1312
▁decision	-10.1312
▁dumb	-10.1312
▁especially	-10.1312
▁estelle	-10.1312
▁french	-10.1312
▁hide	-10.1312
▁holding	-10.1312
▁hole	-10.1312
▁killed	-10.1312
▁losing	-10.1312
▁mary	-10.1312
▁nah	-10.1312
▁noise	-10.1312
▁nurse	-10.1312
▁paolo	-10.1312
▁pocket	-10.1312
▁poker	-10.1312
▁porsche	-10.1312
▁promised	-10.1312
▁quite	-10.1312
▁sec	-10.1312
▁secrets	-10.1312
▁share	-10.1312
▁silly	-10.1312
▁staring	-10.1312
▁taste	-10.1312
▁ticket	-10.1312
▁trade	-10.1312
▁twin	-10.1312
▁usually	-10.1312
▁voice	-10.1312
▁yelling	-10.1312
▁1	-10.18
▁2	-10.18
▁50	-10.18
▁act	-10.18
▁ahhh	-10.18
▁alive	-10.18
▁biggest	-10.18
▁blow	-10.18
▁books	-10.18
▁boys	-10.18
▁breast	-10.18
▁drinks	-10.18
▁elizabeth	-10.18
▁embarrassing	-10.18
▁empty	-10.18
▁fit	-10.18
▁flight	-10.18
▁guy's	-10.18
▁hasn	-10.18
▁keeping	-10.18
▁learned	-10.18
▁longer	-10.18
▁pen	-10.18
▁personal	-10.18
▁phase	-10.18
▁prepared	-10.18
▁score	-10.18
▁sometime	-10.18
▁stopped	-10.18
▁strip	-10.18
▁stripper	-10.18
▁tulsa	-10.18
▁ursula	-10.18
▁blame	-10.2313
▁camera	-10.2313
▁chandler's	-10.2313
▁cheese	-10.2313
▁desk	-10.2313
▁dinosaur	-10.2313
▁dry	-10.2313
▁experience	-10.2313
▁fly	-10.2313
▁grandma	-10.2313
▁hungry	-10.2313
▁jacket	-10.2313
▁jam	-10.2313
▁joanna	-10.2313
▁missing	-10.2313
▁normal	-10.2313
▁pottery	-10.2313
▁rush	-10.2313
▁smoking	-10.2313
▁sooo	-10.2313
▁technically	-10.2313
▁tie	-10.2313
▁wall	-10.2313
▁wins	-10.2313
▁writing	-10.2313
▁alice	-10.2853
▁anywhere	-10.2853
▁area	-10.2853
▁awkward	-10.2853
▁beach	-10.2853
▁bird	-10.2853
▁bite	-10.2853
▁bottom	-10.2853
▁boxes	-10.2853
▁breaking	-10.2853
▁busy	-10.2853
▁candles	-10.2853
▁deserve	-10.2853
▁difference	-10.2853
▁err	-10.2853
▁fish	-10.2853
▁himself	-10.2853
▁hm	-10.2853
▁insane	-10.2853
▁kicked	-10.2853
▁legs	-10.2853
▁lots	-10.2853
▁merry	-10.2853
▁mindy	-10.2853
▁mmm	-10.2853
▁n	-10.2853
▁named	-10.2853
▁noooo	-10.2853
▁note	-10.2853
▁nuts	-10.2853
▁places	-10.2853
▁possible	-10.2853
▁post	-10.2853
▁prove	-10.2853
▁rain	-10.2853
▁roof	-10.2853
▁screwed	-10.2853
▁seemed	-10.2853
▁shop	-10.2853
▁size	-10.2853
▁slow	-10.2853
▁smoke	-10.2853
▁split	-10.2853
▁sudden	-10.2853
▁taken	-10.2853
▁tea	-10.2853
▁thousand	-10.2853
▁tux	-10.2853
▁uncle	-10.2853
▁waitress	-10.2853
▁15	-10.3425
▁actual	-10.3425
▁afternoon	-10.3425
▁bill	-10.3425
▁board	-10.3425
▁bob	-10.3425
▁boring	-10.3425
▁bowl	-10.3425
▁bride	-10.3425
▁butter	-10.3425
▁cameras	-10.3425
▁changing	-10.3425
▁character	-10.3425
▁dates	-10.3425
▁easier	-10.3425
▁egg	-10.3425
▁embarrassed	-10.3425
▁everything's	-10.3425
▁famous	-10.3425
▁fan	-10.3425
▁fashion	-10.3425
▁fool	-10.3425
▁football	-10.3425
▁fruit	-10.3425
▁furniture	-10.3425
▁goin	-10.3425
▁herself	-10.3425
▁human	-10.3425
▁james	-10.3425
▁lied	-10.3425
▁loser	-10.3425
▁magic	-10.3425
▁mail	-10.3425
▁movies	-10.3425
▁offered	-10.3425
▁opera	-10.3425
▁paying	-10.3425
▁plates	-10.3425
▁pregnancy	-10.3425
▁rachel's	-10.3425
▁round	-10.3425
▁route	-10.3425
▁ruin	-10.3425
▁scare	-10.3425
▁sexual	-10.3425
▁spending	-10.3425
▁student	-10.3425
▁system	-10.3425
▁til	-10.3425
▁tree	-10.3425
▁uncomfortable	-10.3425
▁vermont	-10.3425
▁war	-10.3425
▁whoever	-10.3425
▁whose	-10.3425
▁accent	-10.4031
▁admit	-10.4031
▁annulment	-10.4031
▁arm	-10.4031
▁award	-10.4031
▁bang	-10.4031
▁bar	-10.4031
▁bonnie	-10.4031
▁borrowed	-10.4031
▁bringing	-10.4031
▁ceremony	-10.4031
▁closed	-10.4031
▁commercial	-10.4031
▁computer	-10.4031
▁cook	-10.4031
▁danny	-10.4031
▁dark	-10.4031
▁deep	-10.4031
▁driving	-10.4031
▁dropped	-10.4031
▁dying	-10.4031
▁emergency	-10.4031
▁evening	-10.4031
▁everyday	-10.4031
▁familiar	-10.4031
▁fifty	-10.4031
▁fingers	-10.4031
▁focus	-10.4031
▁garbage	-10.4031
▁gettin	-10.4031
▁gives	-10.4031
▁guitar	-10.4031
▁hanukkah	-10.4031
▁history	-10.4031
▁hooker	-10.4031
▁italian	-10.4031
▁janine	-10.4031
▁je	-10.4031
▁kate	-10.4031
▁kay	-10.4031
▁keeps	-10.4031
▁lottery	-10.4031
▁ma	-10.4031
▁mention	-10.4031
▁mm	-10.4031
▁monday	-10.4031
▁nickname	-10.4031
▁opened	-10.4031
▁outta	-10.4031
▁packing	-10.4031
▁percent	-10.4031
▁power	-10.4031
▁respect	-10.4031
▁screw	-10.4031
▁stealing	-10.4031
▁suit	-10.4031
▁surprised	-10.4031
▁teeth	-10.4031
▁toilet	-10.4031
▁total	-10.4031
▁trash	-10.4031
▁treat	-10.4031
▁twelve	-10.4031
▁twins	-10.4031
▁w	-10.4031
▁ways	-10.4031
▁whenever	-10.4031
▁11	-10.4677
▁amanda	-10.4677
▁awww	-10.4677
▁b	-10.4677
▁bachelor	-10.4677
▁basically	-10.4677
▁basket	-10.4677
▁brain	-10.4677
▁breakfast	-10.4677
▁button	-10.4677
▁carry	-10.4677
▁charity	-10.4677
▁checked	-10.4677
▁checking	-10.4677
▁choose	-10.4677
▁cleaning	-10.4677
▁decisions	-10.4677
▁dessert	-10.4677
▁dies	-10.4677
▁dogs	-10.4677
▁drinking	-10.4677
▁ear	-10.4677
▁erica	-10.4677
▁eww	-10.4677
▁expensive	-10.4677
▁field	-10.4677
▁flying	-10.4677
▁forty	-10.4677
▁gifts	-10.4677
▁greatest	-10.4677
▁hah	-10.4677
▁hates	-10.4677
▁hearing	-10.4677
▁heat	-10.4677
▁helps	-10.4677
▁hire	-10.4677
▁kitty	-10.4677
▁knowing	-10.4677
▁l	-10.4677
▁las	-10.4677
▁lead	-10.4677
▁lovely	-10.4677
▁memories	-10.4677
▁mister	-10.4677
▁nana	-10.4677
▁near	-10.4677
▁officer	-10.4677
▁official	-10.4677
▁ohhhh	-10.4677
▁older	-10.4677
▁opening	-10.4677
▁pages	-10.4677
▁pair	-10.4677
▁pal	-10.4677
▁pie	-10.4677
▁points	-10.4677
▁pressure	-10.4677
▁pretending	-10.4677
▁remembered	-10.4677
▁safe	-10.4677
▁seats	-10.4677
▁sell	-10.4677
▁service	-10.4677
▁showing	-10.4677
▁speed	-10.4677
▁spot	-10.4677
▁spring	-10.4677
▁state	-10.4677
▁sting	-10.4677
▁subway	-10.4677
▁super	-10.4677
▁tight	-10.4677
▁touching	-10.4677
▁unfair	-10.4677
▁wet	-10.4677
▁accident	-10.5366
▁al	-10.5366
▁amy	-10.5366
▁animals	-10.5366
▁attracted	-10.5366
▁attractive	-10.5366
▁bald	-10.5366
▁bank	-10.5366
▁bastard	-10.5366
▁batch	-10.5366
▁beers	-10.5366
▁blocks	-10.5366
▁bond	-10.5366
▁bother	-10.5366
▁common	-10.5366
▁complicated	-10.5366
▁dancer	-10.5366
▁daughter	-10.5366
▁delicious	-10.5366
▁drawer	-10.5366
▁dum	-10.5366
▁emma's	-10.5366
▁er	-10.5366
▁exact	-10.5366
▁falling	-10.5366
▁fighting	-10.5366
▁finger	-10.5366
▁forward	-10.5366
▁g	-10.5366
▁games	-10.5366
▁glass	-10.5366
▁glasses	-10.5366
▁goodnight	-10.5366
▁groom	-10.5366
▁gun	-10.5366
▁health	-10.5366
▁healthy	-10.5366
▁helping	-10.5366
▁honest	-10.5366
▁information	-10.5366
▁join	-10.5366
▁judge	-10.5366
▁labor	-10.5366
▁lamp	-10.5366
▁lately	-10.5366
▁leaves	-10.5366
▁letting	-10.5366
▁lips	-10.5366
▁locked	-10.5366
▁michelle	-10.5366
▁oo	-10.5366
▁orange	-10.5366
▁page	-10.5366
▁pillow	-10.5366
▁pink	-10.5366
▁quack	-10.5366
▁queen	-10.5366
▁quiet	-10.5366
▁r	-10.5366
▁remoray	-10.5366
▁rub	-10.5366
▁sandwiches	-10.5366
▁science	-10.5366
▁sisters	-10.5366
▁states	-10.5366
▁taught	-10.5366
▁tip	-10.5366
▁whew	-10.5366
▁winning	-10.5366
▁accept	-10.6108
▁apart	-10.6108
▁bam	-10.6108
▁blew	-10.6108
▁born	-10.6108
▁breathe	-10.6108
▁british	-10.6108
▁bug	-10.6108
▁carl	-10.6108
▁channel	-10.6108
▁cheesecake	-10.6108
▁chi	-10.6108
▁chicks	-10.6108
▁classes	-10.6108
▁client	-10.6108
▁cookie	-10.6108
▁cooking	-10.6108
▁cost	-10.6108
▁costume	-10.6108
▁dated	-10.6108
▁difficult	-10.6108
▁dina	-10.6108
▁director	-10.6108
▁doll	-10.6108
▁earlier	-10.6108
▁everywhere	-10.6108
▁faster	-10.6108
▁favourite	-10.6108
▁fear	-10.6108
▁flip	-10.6108
▁fresh	-10.6108
▁friday	-10.6108
▁gentlemen	-10.6108
▁gross	-10.6108
▁identical	-10.6108
▁incredibly	-10.6108
▁jobs	-10.6108
▁jump	-10.6108
▁lesson	-10.6108
▁library	-10.6108
▁massages	-10.6108
▁messed	-10.6108
▁mix	-10.6108
▁mommy	-10.6108
▁obvious	-10.6108
▁offer	-10.6108
▁opportunity	-10.6108
▁otherwise	-10.6108
▁paleontology	-10.6108
▁passed	-10.6108
▁perfectly	-10.6108
▁perhaps	-10.6108
▁picking	-10.6108
▁planning	-10.6108
▁pool	-10.6108
▁practice	-10.6108
▁problems	-10.6108
▁responsibility	-10.6108
▁screaming	-10.6108
▁serve	-10.6108
▁settle	-10.6108
▁stage	-10.6108
▁supportive	-10.6108
▁tall	-10.6108
▁thoughts	-10.6108
▁toe	-10.6108
▁tongue	-10.6108
▁type	-10.6108
▁upstairs	-10.6108
▁warm	-10.6108
▁whether	-10.6108
▁winner	-10.6108
▁ye	-10.6108
▁younger	-10.6108
▁200	-10.6908
▁accidentally	-10.6908
▁adoption	-10.6908
▁annoying	-10.6908
▁answering	-10.6908
▁appointment	-10.6908
▁attack	-10.6908
▁batman	-10.6908
▁beef	-10.6908
▁bell	-10.6908
▁boobs	-10.6908
▁buying	-10.6908
▁cancel	-10.6908
▁champagne	-10.6908
▁chips	-10.6908
▁chocolate	-10.6908
▁cleaned	-10.6908
▁code	-10.6908
▁conference	-10.6908
▁cowboy	-10.6908
▁creepy	-10.6908
▁dial	-10.6908
▁dumped	-10.6908
▁era	-10.6908
▁ethan	-10.6908
▁europe	-10.6908
▁finds	-10.6908
▁follow	-10.6908
▁fourth	-10.6908
▁freaking	-10.6908
▁gandolf	-10.6908
▁ground	-10.6908
▁grown	-10.6908
▁gum	-10.6908
▁hadn	-10.6908
▁halloween	-10.6908
▁harder	-10.6908
▁inappropriate	-10.6908
▁jessica	-10.6908
▁law	-10.6908
▁leather	-10.6908
▁level	-10.6908
▁lightning	-10.6908
▁lover	-10.6908
▁marrying	-10.6908
▁match	-10.6908
▁messages	-10.6908
▁missy	-10.6908
▁ms	-10.6908
▁neck	-10.6908
▁nipples	-10.6908
▁nowhere	-10.6908
▁odds	-10.6908
▁opinion	-10.6908
▁ours	-10.6908
▁parker	-10.6908
▁phoebe's	-10.6908
▁pig	-10.6908
▁planned	-10.6908
▁pleasure	-10.6908
▁poor	-10.6908
▁possibly	-10.6908
▁proposed	-10.6908
▁recipe	-10.6908
▁rough	-10.6908
▁saved	-10.6908
▁scream	-10.6908
▁sees	-10.6908
▁self	-10.6908
▁ship	-10.6908
▁showed	-10.6908
▁sixth	-10.6908
▁speaking	-10.6908
▁spin	-10.6908
▁spit	-10.6908
▁stomach	-10.6908
▁suddenly	-10.6908
▁suppose	-10.6908
▁switching	-10.6908
▁tells	-10.6908
▁terrific	-10.6908
▁thirty	-10.6908
▁throwing	-10.6908
▁waste	-10.6908
▁watched	-10.6908
▁actress	-10.7778
▁address	-10.7778
▁awake	-10.7778
▁barely	-10.7778
▁bear	-10.7778
▁blind	-10.7778
▁blood	-10.7778
▁breath	-10.7778
▁brown	-10.7778
▁carrying	-10.7778
▁certainly	-10.7778
▁chairs	-10.7778
▁chan	-10.7778
▁changes	-10.7778
▁climb	-10.7778
▁comin	-10.7778
▁commitment	-10.7778
▁contest	-10.7778
▁cop	-10.7778
▁cried	-10.7778
▁cross	-10.7778
▁draw	-10.7778
▁driver	-10.7778
▁dutch	-10.7778
▁eats	-10.7778
▁enjoying	-10.7778
▁fantastic	-10.7778
▁fifth	-10.7778
▁filled	-10.7778
▁forth	-10.7778
▁fourteen	-10.7778
▁friendship	-10.7778
▁funeral	-10.7778
▁gary	-10.7778
▁generous	-10.7778
▁gorgeous	-10.7778
▁heh	-10.7778
▁hired	-10.7778
▁hooked	-10.7778
▁ideas	-10.7778
▁impossible	-10.7778
▁introduce	-10.7778
▁jason	-10.7778
▁jenny	-10.7778
▁jerk	-10.7778
▁josh	-10.7778
▁kicking	-10.7778
▁land	-10.7778
▁lap	-10.7778
▁larry	-10.7778
▁lawyer	-10.7778
▁lecture	-10.7778
▁leslie	-10.7778
▁letter	-10.7778
▁lines	-10.7778
▁lookin	-10.7778
▁losers	-10.7778
▁market	-10.7778
▁mood	-10.7778
▁muffin	-10.7778
▁nancy	-10.7778
▁negative	-10.7778
▁nobel	-10.7778
▁non	-10.7778
▁nothin	-10.7778
▁ourselves	-10.7778
▁packed	-10.7778
▁parts	-10.7778
▁patch	-10.7778
▁pathetic	-10.7778
▁plastic	-10.7778
▁plays	-10.7778
▁poem	-10.7778
▁prize	-10.7778
▁pulled	-10.7778
▁punch	-10.7778
▁recognize	-10.7778
▁record	-10.7778
▁rich	-10.7778
▁robert	-10.7778
▁roommates	-10.7778
▁rooms	-10.7778
▁ruth	-10.7778
▁sauce	-10.7778
▁selfish	-10.7778
▁shows	-10.7778
▁skin	-10.7778
▁smile	-10.7778
▁smiling	-10.7778
▁sold	-10.7778
▁someday	-10.7778
▁sorta	-10.7778
▁stayed	-10.7778
▁stink	-10.7778
▁throat	-10.7778
▁tons	-10.7778
▁triplets	-10.7778
▁turning	-10.7778
▁uterus	-10.7778
▁vince	-10.7778
▁wendy	-10.7778
▁whoo	-10.7778
▁woman's	-10.7778
▁wrap	-10.7778
▁yea	-10.7778
▁yell	-10.7778
▁'kay	-10.8731
▁adult	-10.8731
▁affair	-10.8731
▁afford	-10.8731
▁agreed	-10.8731
▁aisle	-10.8731
▁amount	-10.8731
▁animal	-10.8731
▁answers	-10.8731
▁armadillo	-10.8731
▁atlantic	-10.8731
▁available	-10.8731
▁awesome	-10.8731
▁bags	-10.8731
▁bee	-10.8731
▁brave	-10.8731
▁breezy	-10.8731
▁bummed	-10.8731
▁camp	-10.8731
▁category	-10.8731
▁catering	-10.8731
▁certain	-10.8731
▁coffeehouse	-10.8731
▁covered	-10.8731
▁curious	-10.8731
▁danger	-10.8731
▁depressed	-10.8731
▁dig	-10.8731
▁disgusting	-10.8731
▁drew	-10.8731
▁drops	-10.8731
▁english	-10.8731
▁evil	-10.8731
▁exhausted	-10.8731
▁faces	-10.8731
▁feeding	-10.8731
▁fill	-10.8731
▁forgotten	-10.8731
▁gas	-10.8731
▁george	-10.8731
▁gold	-10.8731
▁guessing	-10.8731
▁handsome	-10.8731
▁hannigan	-10.8731
▁helped	-10.8731
▁hint	-10.8731
▁hmmm	-10.8731
▁invitation	-10.8731
▁j	-10.8731
▁joseph	-10.8731
▁killing	-10.8731
▁license	-10.8731
▁lobster	-10.8731
▁lock	-10.8731
▁mac	-10.8731
▁mike's	-10.8731
▁miracle	-10.8731
▁mugged	-10.8731
▁noises	-10.8731
▁ooooh	-10.8731
▁oops	-10.8731
▁organized	-10.8731
▁outfit	-10.8731
▁oww	-10.8731
▁parties	-10.8731
▁peanut	-10.8731
▁pepper	-10.8731
▁pet	-10.8731
▁photo	-10.8731
▁plenty	-10.8731
▁police	-10.8731
▁positive	-10.8731
▁press	-10.8731
▁private	-10.8731
▁professional	-10.8731
▁quickly	-10.8731
▁reasons	-10.8731
▁related	-10.8731
▁relative	-10.8731
▁rip	-10.8731
▁salad	-10.8731
▁salt	-10.8731
▁sea	-10.8731
▁search	-10.8731
▁season	-10.8731
▁sensitive	-10.8731
▁signs	-10.8731
▁simple	-10.8731
▁singing	-10.8731
▁smaller	-10.8731
▁smelly	-10.8731
▁songs	-10.8731
▁sooner	-10.8731
▁spoon	-10.8731
▁sports	-10.8731
▁summer	-10.8731
▁tails	-10.8731
▁talkin	-10.8731
▁tastes	-10.8731
▁term	-10.8731
▁tissue	-10.8731
▁tommy	-10.8731
▁touched	-10.8731
▁trick	-10.8731
▁unagi	-10.8731
▁unfortunately	-10.8731
▁version	-10.8731
▁visit	-10.8731
▁wallet	-10.8731
▁weddings	-10.8731
▁western	-10.8731
▁woke	-10.8731
▁written	-10.8731
▁zone	-10.8731
▁'til	-10.9785
▁25	-10.9785
▁according	-10.9785
▁america	-10.9785
▁apple	-10.9785
▁aside	-10.9785
▁assume	-10.9785
▁atm	-10.9785
▁badly	-10.9785
▁bakery	-10.9785
▁balcony	-10.9785
▁bamboozled	-10.9785
▁barbados	-10.9785
▁becoming	-10.9785
▁bijan	-10.9785
▁bobby	-10.9785
▁bone	-10.9785
▁bonus	-10.9785
▁boob	-10.9785
▁boom	-10.9785
▁bored	-10.9785
▁breaks	-10.9785
▁bridesmaid	-10.9785
▁brush	-10.9785
▁bucket	-10.9785
▁burn	-10.9785
▁c	-10.9785
▁c'mere	-10.9785
▁casey	-10.9785
▁cell	-10.9785
▁central	-10.9785
▁cha	-10.9785
▁charming	-10.9785
▁cheer	-10.9785
▁chloe	-10.9785
▁confused	-10.9785
▁corner	-10.9785
▁counter	-10.9785
▁da	-10.9785
▁de	-10.9785
▁defense	-10.9785
▁denise	-10.9785
▁dentist	-10.9785
▁destroy	-10.9785
▁dinosaurs	-10.9785
▁discovery	-10.9785
▁dollar	-10.9785
▁doug	-10.9785
▁ears	-10.9785
▁edge	-10.9785
▁ehh	-10.9785
▁energy	-10.9785
▁england	-10.9785
▁exchange	-10.9785
▁fears	-10.9785
▁film	-10.9785
▁fireman	-10.9785
▁fling	-10.9785
▁flirting	-10.9785
▁freezer	-10.9785
▁ginger	-10.9785
▁given	-10.9785
▁gladys	-10.9785
▁gotcha	-10.9785
▁greg	-10.9785
▁group	-10.9785
▁hallway	-10.9785
▁hardly	-10.9785
▁holidays	-10.9785
▁homo	-10.9785
▁hon	-10.9785
▁host	-10.9785
▁huddle	-10.9785
▁hung	-10.9785
▁insurance	-10.9785
▁invented	-10.9785
▁invitations	-10.9785
▁kim	-10.9785
▁kip	-10.9785
▁kisser	-10.9785
▁knee	-10.9785
▁knocked	-10.9785
▁lay	-10.9785
▁layer	-10.9785
▁lighting	-10.9785
▁lotion	-10.9785
▁magical	-10.9785
▁major	-10.9785
▁makeup	-10.9785
▁midnight	-10.9785
▁mirror	-10.9785
▁moves	-10.9785
▁musical	-10.9785
▁needy	-10.9785
▁neighbors	-10.9785
▁noodle	-10.9785
▁often	-10.9785
▁oklahoma	-10.9785
▁original	-10.9785
▁oven	-10.9785
▁painful	-10.9785
▁parade	-10.9785
▁peace	-10.9785
▁penis	-10.9785
▁people's	-10.9785
▁pile	-10.9785
▁pipe	-10.9785
▁popular	-10.9785
▁president	-10.9785
▁prison	-10.9785
▁psychic	-10.9785
▁pulling	-10.9785
▁pushing	-10.9785
▁quitting	-10.9785
▁realised	-10.9785
▁ree	-10.9785
▁reservations	-10.9785
▁review	-10.9785
▁rick	-10.9785
▁roger	-10.9785
▁rooster	-10.9785
▁sale	-10.9785
▁salmon	-10.9785
▁sat	-10.9785
▁saving	-10.9785
▁sending	-10.9785
▁shake	-10.9785
▁shots	-10.9785
▁sickness	-10.9785
▁slutty	-10.9785
▁smoked	-10.9785
▁smooth	-10.9785
▁sneak	-10.9785
▁snow	-10.9785
▁socks	-10.9785
▁soft	-10.9785
▁sounded	-10.9785
▁squeeze	-10.9785
▁stairs	-10.9785
▁stars	-10.9785
▁students	-10.9785
▁suite	-10.9785
▁support	-10.9785
▁swim	-10.9785
▁tennis	-10.9785
▁thankful	-10.9785
▁thinkin	-10.9785
▁thunder	-10.9785
▁tone	-10.9785
▁towel	-10.9785
▁towels	-10.9785
▁train	-10.9785
▁tweet	-10.9785
▁typical	-10.9785
▁vacation	-10.9785
▁van	-10.9785
▁veto	-10.9785
▁view	-10.9785
▁waited	-10.9785
▁whoah	-10.9785
▁whoops	-10.9785
▁wild	-10.9785
▁wind	-10.9785
▁wire	-10.9785
▁wore	-10.9785
▁year's	-10.9785
▁yemen	-10.9785
▁zelner	-10.9785
▁'bout	-11.0963
▁'i	-11.0963
▁100	-11.0963
▁12	-11.0963
▁account	-11.0963
▁action	-11.0963
▁adorable	-11.0963
▁adults	-11.0963
▁althea	-11.0963
▁american	-11.0963
▁apology	-11.0963
▁apothecary	-11.0963
▁argh	-11.0963
▁arms	-11.0963
▁aware	-11.0963
▁backup	-11.0963
▁barbi	-11.0963
▁basketball	-11.0963
▁beans	-11.0963
▁became	-11.0963
▁beginning	-11.0963
▁begins	-11.0963
▁bings	-11.0963
▁blank	-11.0963
▁blond	-11.0963
▁bout	-11.0963
▁bright	-11.0963
▁bubble	-11.0963
▁built	-11.0963
▁bump	-11.0963
▁bumped	-11.0963
▁bus	-11.0963
▁cakes	-11.0963
▁cash	-11.0963
▁cassie	-11.0963
▁celebrate	-11.0963
▁challenge	-11.0963
▁chances	-11.0963
▁cheerleader	-11.0963
▁chinese	-11.0963
▁chose	-11.0963
▁coin	-11.0963
▁color	-11.0963
▁complete	-11.0963
▁condom	-11.0963
▁cooler	-11.0963
▁couples	-11.0963
▁courage	-11.0963
▁cow	-11.0963
▁crossword	-11.0963
▁crotch	-11.0963
▁dan	-11.0963
▁device	-11.0963
▁dresses	-11.0963
▁drove	-11.0963
▁drums	-11.0963
▁ehm	-11.0963
▁eleven	-11.0963
▁eve	-11.0963
▁failed	-11.0963
▁fifteen	-11.0963
▁final	-11.0963
▁fixed	-11.0963
▁fold	-11.0963
▁following	-11.0963
▁frannie	-11.0963
▁genius	-11.0963
▁gentle	-11.0963
▁goofing	-11.0963
▁guide	-11.0963
▁hairy	-11.0963
▁hats	-11.0963
▁heavy	-11.0963
▁helen	-11.0963
▁hero	-11.0963
▁hitting	-11.0963
▁hockey	-11.0963
▁honestly	-11.0963
▁hook	-11.0963
▁hop	-11.0963
▁intense	-11.0963
▁invisible	-11.0963
▁issac	-11.0963
▁issue	-11.0963
▁jar	-11.0963
▁john	-11.0963
▁joy	-11.0963
▁jr	-11.0963
▁junior	-11.0963
▁kenny	-11.0963
▁kills	-11.0963
▁label	-11.0963
▁lasagna	-11.0963
▁le	-11.0963
▁liar	-11.0963
▁magazines	-11.0963
▁male	-11.0963
▁millionaire	-11.0963
▁mini	-11.0963
▁natural	-11.0963
▁neat	-11.0963
▁necklace	-11.0963
▁nights	-11.0963
▁one's	-11.0963
▁ooo	-11.0963
▁opposite	-11.0963
▁option	-11.0963
▁pad	-11.0963
▁paleontologist	-11.0963
▁pays	-11.0963
▁perform	-11.0963
▁period	-11.0963
▁petty	-11.0963
▁philange	-11.0963
▁pies	-11.0963
▁pivot	-11.0963
▁pop	-11.0963
▁potato	-11.0963
▁pounds	-11.0963
▁precious	-11.0963
▁prefer	-11.0963
▁price	-11.0963
▁pride	-11.0963
▁privacy	-11.0963
▁public	-11.0963
▁puts	-11.0963
▁rabbit	-11.0963
▁ray	-11.0963
▁resolution	-11.0963
▁rings	-11.0963
▁robot	-11.0963
▁rome	-11.0963
▁routine	-11.0963
▁scientist	-11.0963
▁section	-11.0963
▁security	-11.0963
▁selfless	-11.0963
▁setting	-11.0963
▁shining	-11.0963
▁shooting	-11.0963
▁sink	-11.0963
▁slip	-11.0963
▁soccer	-11.0963
▁sock	-11.0963
▁soda	-11.0963
▁sophie	-11.0963
▁sophisticated	-11.0963
▁sperm	-11.0963
▁spider	-11.0963
▁stalin	-11.0963
▁steady	-11.0963
▁steve	-11.0963
▁sticking	-11.0963
▁stood	-11.0963
▁stories	-11.0963
▁strike	-11.0963
▁stuffed	-11.0963
▁subject	-11.0963
▁sweat	-11.0963
▁sweep	-11.0963
▁sweetheart	-11.0963
▁tables	-11.0963
▁tasted	-11.0963
▁teaching	-11.0963
▁theater	-11.0963
▁theme	-11.0963
▁thin	-11.0963
▁touchdown	-11.0963
▁treeger	-11.0963
▁truck	-11.0963
▁un	-11.0963
▁unit	-11.0963
▁valentine	-11.0963
▁vanilla	-11.0963
▁wa	-11.0963
▁waiter	-11.0963
▁walks	-11.0963
▁wax	-11.0963
▁weirdest	-11.0963
▁whipped	-11.0963
▁x	-11.0963
▁yummy	-11.0963
▁zoo	-11.0963
▁'you	-11.2298
▁added	-11.2298
▁adrienne	-11.2298
▁advantage	-11.2298
▁agency	-11.2298
▁ahhhh	-11.2298
▁ankle	-11.2298
▁anytime	-11.2298
▁apples	-11.2298
▁art	-11.2298
▁attention	-11.2298
▁auditions	-11.2298
▁bachelorette	-11.2298
▁backed	-11.2298
▁bake	-11.2298
▁bay	-11.2298
▁beard	-11.2298
▁beauty	-11.2298
▁behalf	-11.2298
▁bert	-11.2298
▁beth	-11.2298
▁bong	-11.2298
▁boobies	-11.2298
▁bosses	-11.2298
▁brand	-11.2298
▁bras	-11.2298
▁bread	-11.2298
▁brian	-11.2298
▁brolin	-11.2298
▁bubbles	-11.2298
▁build	-11.2298
▁burger	-11.2298
▁burned	-11.2298
▁buyer	-11.2298
▁carol's	-11.2298
▁carpet	-11.2298
▁cast	-11.2298
▁casting	-11.2298
▁catching	-11.2298
▁caterer	-11.2298
▁cats	-11.2298
▁celebrating	-11.2298
▁cents	-11.2298
▁cheater	-11.2298
▁cheating	-11.2298
▁childhood	-11.2298
▁cigarettes	-11.2298
▁circles	-11.2298
▁clark	-11.2298
▁clients	-11.2298
▁clinic	-11.2298
▁co	-11.2298
▁coats	-11.2298
▁coincidence	-11.2298
▁coma	-11.2298
▁competition	-11.2298
▁condoms	-11.2298
▁convince	-11.2298
▁convinced	-11.2298
▁cough	-11.2298
▁coulda	-11.2298
▁cujo	-11.2298
▁custard	-11.2298
▁d'you	-11.2298
▁deed	-11.2298
▁dictionary	-11.2298
▁diet	-11.2298
▁differently	-11.2298
▁digest	-11.2298
▁divorces	-11.2298
▁doctors	-11.2298
▁dollhouse	-11.2298
▁doody	-11.2298
▁doubt	-11.2298
▁drag	-11.2298
▁due	-11.2298
▁dull	-11.2298
▁earth	-11.2298
▁easily	-11.2298
▁emotional	-11.2298
▁enter	-11.2298
▁escape	-11.2298
▁everest	-11.2298
▁example	-11.2298
▁expecting	-11.2298
▁f	-11.2298
▁female	-11.2298
▁finding	-11.2298
▁flea	-11.2298
▁floating	-11.2298
▁folks	-11.2298
▁foosball	-11.2298
▁francis	-11.2298
▁friend's	-11.2298
▁fur	-11.2298
▁further	-11.2298
▁gee	-11.2298
▁ghost	-11.2298
▁gig	-11.2298
▁girl's	-11.2298
▁goalie	-11.2298
▁grabbed	-11.2298
▁grant	-11.2298
▁groomsman	-11.2298
▁growing	-11.2298
▁guilty	-11.2298
▁hernia	-11.2298
▁hike	-11.2298
▁hopes	-11.2298
▁houses	-11.2298
▁humiliating	-11.2298
▁ignore	-11.2298
▁impression	-11.2298
▁indian	-11.2298
▁involve	-11.2298
▁isabella	-11.2298
▁island	-11.2298
▁jail	-11.2298
▁jane	-11.2298
▁jeez	-11.2298
▁jewish	-11.2298
▁joan	-11.2298
▁judging	-11.2298
▁jumping	-11.2298
▁k	-11.2298
▁kiddin	-11.2298
▁kisses	-11.2298
▁lake	-11.2298
▁lame	-11.2298
▁large	-11.2298
▁lasted	-11.2298
▁laughed	-11.2298
▁lemonade	-11.2298
▁lewis	-11.2298
▁lip	-11.2298
▁lipstick	-11.2298
▁lord	-11.2298
▁lousy	-11.2298
▁low	-11.2298
▁man's	-11.2298
▁maple	-11.2298
▁maternity	-11.2298
▁math	-11.2298
▁melissa	-11.2298
▁mentioned	-11.2298
▁mexico	-11.2298
▁mixed	-11.2298
▁mom's	-11.2298
▁momma	-11.2298
▁moon	-11.2298
▁mornin	-11.2298
▁nick	-11.2298
▁nightmare	-11.2298
▁nina	-11.2298
▁nudity	-11.2298
▁pact	-11.2298
▁pancakes	-11.2298
▁partner	-11.2298
▁passion	-11.2298
▁patrick	-11.2298
▁phlegm	-11.2298
▁pickle	-11.2298
▁pin	-11.2298
▁piv	-11.2298
▁poo	-11.2298
▁position	-11.2298
▁poster	-11.2298
▁pot	-11.2298
▁pound	-11.2298
▁pre	-11.2298
▁puppy	-11.2298
▁quality	-11.2298
▁quarter	-11.2298
▁reception	-11.2298
▁remote	-11.2298
▁rocks	-11.2298
▁runs	-11.2298
▁shall	-11.2298
▁shame	-11.2298
▁shampoo	-11.2298
▁sharks	-11.2298
▁shave	-11.2298
▁sheets	-11.2298
▁shirts	-11.2298
▁shorts	-11.2298
▁shy	-11.2298
▁silver	-11.2298
▁sittin	-11.2298
▁skating	-11.2298
▁skills	-11.2298
▁slap	-11.2298
▁snack	-11.2298
▁specials	-11.2298
▁spread	-11.2298
▁square	-11.2298
▁stain	-11.2298
▁stolen	-11.2298
▁stopping	-11.2298
▁stops	-11.2298
▁strange	-11.2298
▁strings	-11.2298
▁strippers	-11.2298
▁stuffing	-11.2298
▁sup	-11.2298
▁surgery	-11.2298
▁surprisingly	-11.2298
▁swings	-11.2298
▁swoop	-11.2298
▁tan	-11.2298
▁tears	-11.2298
▁television	-11.2298
▁tellin	-11.2298
▁thick	-11.2298
▁thong	-11.2298
▁tony	-11.2298
▁toy	-11.2298
▁travel	-11.2298
▁trees	-11.2298
▁tricky	-11.2298
▁trifle	-11.2298
▁typing	-11.2298
▁understanding	-11.2298
▁unemployed	-11.2298
▁vegetarian	-11.2298
▁vet	-11.2298
▁vicrum	-11.2298
▁walls	-11.2298
▁wanting	-11.2298
▁wash	-11.2298
▁weight	-11.2298
▁wenus	-11.2298
▁willing	-11.2298
▁wooden	-11.2298
▁worrying	-11.2298
▁yellow	-11.2298
▁yo	-11.2298
▁abandoned	-11.3839
▁adopted	-11.3839
▁advertising	-11.3839
▁album	-11.3839
▁allergic	-11.3839
▁attached	-11.3839
▁ba	-11.3839
▁babe	-11.3839
▁banana	-11.3839
▁bananas	-11.3839
▁barrel	-11.3839
▁baseball	-11.3839
▁begging	-11.3839
▁belly	-11.3839
▁belongs	-11.3839
▁ben's	-11.3839
▁betting	-11.3839
▁bills	-11.3839
▁bla	-11.3839
▁block	-11.3839
▁blonde	-11.3839
▁bothers	-11.3839
▁bow	-11.3839
▁brains	-11.3839
▁bridge	-11.3839
▁broadway	-11.3839
▁brothers	-11.3839
▁bunnies	-11.3839
▁burning	-11.3839
▁candle	-11.3839
▁categories	-11.3839
▁ceiling	-11.3839
▁celebration	-11.3839
▁chain	-11.3839
▁chase	-11.3839
▁cheat	-11.3839
▁chicago	-11.3839
▁cinnamon	-11.3839
▁classy	-11.3839
▁claude	-11.3839
▁clunkers	-11.3839
▁coast	-11.3839
▁coke	-11.3839
▁collection	-11.3839
▁comedy	-11.3839
▁compared	-11.3839
▁concept	-11.3839
▁concert	-11.3839
▁connected	-11.3839
▁consider	-11.3839
▁contact	-11.3839
▁contestants	-11.3839
▁contracts	-11.3839
▁covers	-11.3839
▁crab	-11.3839
▁crime	-11.3839
▁cuts	-11.3839
▁dammit	-11.3839
▁dangerous	-11.3839
▁danielle	-11.3839
▁data	-11.3839
▁deserves	-11.3839
▁diaper	-11.3839
▁discuss	-11.3839
▁disease	-11.3839
▁dishes	-11.3839
▁distance	-11.3839
▁distract	-11.3839
▁dreams	-11.3839
▁dressing	-11.3839
▁drugs	-11.3839
▁dump	-11.3839
▁elevator	-11.3839
▁else's	-11.3839
▁ends	-11.3839
▁erin	-11.3839
▁event	-11.3839
▁fairly	-11.3839
▁falls	-11.3839
▁feed	-11.3839
▁feminine	-11.3839
▁fireball	-11.3839
▁flirt	-11.3839
▁flower	-11.3839
▁fog	-11.3839
▁fogged	-11.3839
▁fonzie	-11.3839
▁force	-11.3839
▁forced	-11.3839
▁freedom	-11.3839
▁frozen	-11.3839
▁gal	-11.3839
▁gala	-11.3839
▁garlic	-11.3839
▁geek	-11.3839
▁general	-11.3839
▁gesture	-11.3839
▁girlie	-11.3839
▁gleba	-11.3839
▁globe	-11.3839
▁glow	-11.3839
▁glue	-11.3839
▁gossip	-11.3839
▁grand	-11.3839
▁gravy	-11.3839
▁guard	-11.3839
▁haircut	-11.3839
▁handed	-11.3839
▁hardest	-11.3839
▁hated	-11.3839
▁held	-11.3839
▁helpful	-11.3839
▁hid	-11.3839
▁hidden	-11.3839
▁highest	-11.3839
▁hilda	-11.3839
▁holy	-11.3839
▁horny	-11.3839
▁horse	-11.3839
▁hunt	-11.3839
▁imaginary	-11.3839
▁impressed	-11.3839
▁impressive	-11.3839
▁incident	-11.3839
▁including	-11.3839
▁insist	-11.3839
▁interest	-11.3839
▁international	-11.3839
▁issues	-11.3839
▁jake	-11.3839
▁jeans	-11.3839
▁jellyfish	-11.3839
▁jersey	-11.3839
▁jo	-11.3839
▁judy	-11.3839
▁jumps	-11.3839
▁kinds	-11.3839
▁kings	-11.3839
▁laid	-11.3839
▁language	-11.3839
▁league	-11.3839
▁lean	-11.3839
▁learning	-11.3839
▁lessons	-11.3839
▁letters	-11.3839
▁lifetime	-11.3839
▁lift	-11.3839
▁lilies	-11.3839
▁lo	-11.3839
▁loner	-11.3839
▁loose	-11.3839
▁loses	-11.3839
▁loving	-11.3839
▁lowell	-11.3839
▁lynn	-11.3839
▁magazine	-11.3839
▁mailman	-11.3839
▁map	-11.3839
▁margaritas	-11.3839
▁masseuse	-11.3839
▁material	-11.3839
▁matters	-11.3839
▁meal	-11.3839
▁meals	-11.3839
▁medicine	-11.3839
▁men's	-11.3839
▁mental	-11.3839
▁messing	-11.3839
▁minister	-11.3839
▁mississippi	-11.3839
▁mmmm	-11.3839
▁moms	-11.3839
▁moo	-11.3839
▁moore	-11.3839
▁mostly	-11.3839
▁moustache	-11.3839
▁muffins	-11.3839
▁murder	-11.3839
▁na	-11.3839
▁nails	-11.3839
▁nature	-11.3839
▁nevermind	-11.3839
▁nono	-11.3839
▁normally	-11.3839
▁noticed	-11.3839
▁nutter	-11.3839
▁officially	-11.3839
▁ohhhhh	-11.3839
▁onto	-11.3839
▁pbs	-11.3839
▁peed	-11.3839
▁peep	-11.3839
▁penny	-11.3839
▁permission	-11.3839
▁phrase	-11.3839
▁physically	-11.3839
▁pickles	-11.3839
▁platform	-11.3839
▁plaza	-11.3839
▁poughkeepsie	-11.3839
▁princess	-11.3839
▁process	-11.3839
▁proved	-11.3839
▁puppies	-11.3839
▁purple	-11.3839
▁purpose	-11.3839
▁puzzle	-11.3839
▁quarters	-11.3839
▁queens	-11.3839
▁reached	-11.3839
▁reads	-11.3839
▁recently	-11.3839
▁regret	-11.3839
▁rehearsal	-11.3839
▁relationships	-11.3839
▁reminds	-11.3839
▁remove	-11.3839
▁repel	-11.3839
▁research	-11.3839
▁reservation	-11.3839
▁resist	-11.3839
▁responsible	-11.3839
▁ringing	-11.3839
▁roomie	-11.3839
▁ruining	-11.3839
▁sailing	-11.3839
▁sake	-11.3839
▁san	-11.3839
▁scares	-11.3839
▁scottish	-11.3839
▁scratch	-11.3839
▁screamed	-11.3839
▁script	-11.3839
▁seating	-11.3839
▁senior	-11.3839
▁separate	-11.3839
▁sexually	-11.3839
▁shaking	-11.3839
▁shocked	-11.3839
▁sight	-11.3839
▁sister's	-11.3839
▁sixteen	-11.3839
▁skirt	-11.3839
▁slut	-11.3839
▁snap	-11.3839
▁sneakers	-11.3839
▁social	-11.3839
▁somehow	-11.3839
▁south	-11.3839
▁spare	-11.3839
▁spelled	-11.3839
▁spirit	-11.3839
▁spots	-11.3839
▁spray	-11.3839
▁stays	-11.3839
▁steak	-11.3839
▁steam	-11.3839
▁stepped	-11.3839
▁strangers	-11.3839
▁sucked	-11.3839
▁sucking	-11.3839
▁sun	-11.3839
▁sweating	-11.3839
▁sweaty	-11.3839
▁talented	-11.3839
▁talks	-11.3839
▁tap	-11.3839
▁taped	-11.3839
▁testing	-11.3839
▁th	-11.3839
▁themselves	-11.3839
▁theories	-11.3839
▁theory	-11.3839
▁thrown	-11.3839
▁tick	-11.3839
▁tiger	-11.3839
▁till	-11.3839
▁tips	-11.3839
▁tools	-11.3839
▁toys	-11.3839
▁trail	-11.3839
▁treats	-11.3839
▁unbelievably	-11.3839
▁underneath	-11.3839
▁undo	-11.3839
▁unreasonable	-11.3839
▁upon	-11.3839
▁ups	-11.3839
▁v	-11.3839
▁veil	-11.3839
▁vomit	-11.3839
▁waltham	-11.3839
▁wango	-11.3839
▁warn	-11.3839
▁washed	-11.3839
▁weather	-11.3839
▁wednesday	-11.3839
▁west	-11.3839
▁whaddya	-11.3839
▁wheel	-11.3839
▁whip	-11.3839
▁whom	-11.3839
▁wicked	-11.3839
▁wise	-11.3839
▁wishing	-11.3839
▁xerox	-11.3839
▁yard	-11.3839
▁yelled	-11.3839
▁yuck	-11.3839
▁ace	-11.5663
▁acted	-11.5663
▁actors	-11.5663
▁ad	-11.5663
▁agree	-11.5663
▁ahem	-11.5663
▁airplane	-11.5663
▁albert	-11.5663
▁ankles	-11.5663
▁annie	-11.5663
▁appropriate	-11.5663
▁arrested	-11.5663
▁asks	-11.5663
▁average	-11.5663
▁awfully	-11.5663
▁baby's	-11.5663
▁backpacking	-11.5663
▁bat	-11.5663
▁beeped	-11.5663
▁beg	-11.5663
▁begin	-11.5663
▁believed	-11.5663
▁bicep	-11.5663
▁bikini	-11.5663
▁blades	-11.5663
▁bloomingdale	-11.5663
▁blueberry	-11.5663
▁bones	-11.5663
▁boxer	-11.5663
▁briefcase	-11.5663
▁budget	-11.5663
▁bugs	-11.5663
▁bum	-11.5663
▁c.h.e.e.s.e	-11.5663
▁cabin	-11.5663
▁cage	-11.5663
▁cancelled	-11.5663
▁capable	-11.5663
▁captain	-11.5663
▁carbon	-11.5663
▁carries	-11.5663
▁cart	-11.5663
▁cartoon	-11.5663
▁casserole	-11.5663
▁catalog	-11.5663
▁cave	-11.5663
▁celebrities	-11.5663
▁celebrity	-11.5663
▁center	-11.5663
▁chat	-11.5663
▁chocolates	-11.5663
▁chris	-11.5663
▁classic	-11.5663
▁clever	-11.5663
▁click	-11.5663
▁cliff	-11.5663
▁closeness	-11.5663
▁clown	-11.5663
▁collar	-11.5663
▁comedian	-11.5663
▁comet	-11.5663
▁commercials	-11.5663
▁competitive	-11.5663
▁confuse	-11.5663
▁connecticut	-11.5663
▁considered	-11.5663
▁constantly	-11.5663
▁contraction	-11.5663
▁cops	-11.5663
▁costumes	-11.5663
▁cotton	-11.5663
▁counted	-11.5663
▁counts	-11.5663
▁court	-11.5663
▁crack	-11.5663
▁cranberry	-11.5663
▁dad's	-11.5663
▁damage	-11.5663
▁dare	-11.5663
▁deaf	-11.5663
▁decides	-11.5663
▁deeds	-11.5663
▁definite	-11.5663
▁delivery	-11.5663
▁deposit	-11.5663
▁desert	-11.5663
▁desperate	-11.5663
▁diapers	-11.5663
▁dick	-11.5663
▁disneyland	-11.5663
▁donald	-11.5663
▁drawing	-11.5663
▁dresser	-11.5663
▁dryer	-11.5663
▁duh	-11.5663
▁ed	-11.5663
▁effort	-11.5663
▁eggs	-11.5663
▁eldad	-11.5663
▁embarrass	-11.5663
▁enh	-11.5663
▁enjoyed	-11.5663
▁entertainment	-11.5663
▁erectus	-11.5663
▁erm	-11.5663
▁essence	-11.5663
▁evaluation	-11.5663
▁ewww	-11.5663
▁extras	-11.5663
▁ezel	-11.5663
▁fajitas	-11.5663
▁families	-11.5663
▁fans	-11.5663
▁fax	-11.5663
▁firm	-11.5663
▁floors	-11.5663
▁floss	-11.5663
▁flow	-11.5663
▁fluid	-11.5663
▁followed	-11.5663
▁fooling	-11.5663
▁form	-11.5663
▁forms	-11.5663
▁fossils	-11.5663
▁france	-11.5663
▁funniest	-11.5663
▁gang	-11.5663
▁garage	-11.5663
▁geez	-11.5663
▁generally	-11.5663
▁girlfriends	-11.5663
▁goggles	-11.5663
▁golf	-11.5663
▁goodacre	-11.5663
▁graduation	-11.5663
▁gucci	-11.5663
▁guests	-11.5663
▁h	-11.5663
▁hammer	-11.5663
▁handling	-11.5663
▁handshake	-11.5663
▁havin	-11.5663
▁headed	-11.5663
▁heckles	-11.5663
▁helmet	-11.5663
▁hillary	-11.5663
▁hip	-11.5663
▁hiring	-11.5663
▁hopefully	-11.5663
▁hormones	-11.5663
▁hornswoggle	-11.5663
▁hostess	-11.5663
▁hugging	-11.5663
▁hummus	-11.5663
▁humping	-11.5663
▁hut	-11.5663
▁illegal	-11.5663
▁image	-11.5663
▁ink	-11.5663
▁insecure	-11.5663
▁interrupt	-11.5663
▁irish	-11.5663
▁jackass	-11.5663
▁jasmine	-11.5663
▁joanne	-11.5663
▁jumped	-11.5663
▁kicks	-11.5663
▁kristen	-11.5663
▁lasagnas	-11.5663
▁latte	-11.5663
▁layers	-11.5663
▁leading	-11.5663
▁lemon	-11.5663
▁lighter	-11.5663
▁lit	-11.5663
▁literature	-11.5663
▁lonely	-11.5663
▁luisa	-11.5663
▁m'appelle	-11.5663
▁macaroni	-11.5663
▁maker	-11.5663
▁makin	-11.5663
▁manhattan	-11.5663
▁manly	-11.5663
▁marriages	-11.5663
▁mattress	-11.5663
▁mature	-11.5663
▁meanwhile	-11.5663
▁medical	-11.5663
▁medium	-11.5663
▁mee	-11.5663
▁mhm	-11.5663
▁michael	-11.5663
▁millions	-11.5663
▁mints	-11.5663
▁miserable	-11.5663
▁misery	-11.5663
▁misunderstanding	-11.5663
▁mmh	-11.5663
▁moist	-11.5663
▁moonlight	-11.5663
▁mountain	-11.5663
▁mug	-11.5663
▁naming	-11.5663
▁ninety	-11.5663
▁nipple	-11.5663
▁nominated	-11.5663
▁noodles	-11.5663
▁nooooo	-11.5663
▁notch	-11.5663
▁nude	-11.5663
▁nurses	-11.5663
▁nut	-11.5663
▁oath	-11.5663
▁oil	-11.5663
▁olivia	-11.5663
▁omnipotent	-11.5663
▁oop	-11.5663
▁operas	-11.5663
▁others	-11.5663
▁overwhelming	-11.5663
▁ovulating	-11.5663
▁owned	-11.5663
▁pan	-11.5663
▁panic	-11.5663
▁paolo's	-11.5663
▁parent	-11.5663
▁passport	-11.5663
▁pencil	-11.5663
▁per	-11.5663
▁perfection	-11.5663
▁performance	-11.5663
▁personality	-11.5663
▁personally	-11.5663
▁perspective	-11.5663
▁pervert	-11.5663
▁phil	-11.5663
▁phoebs	-11.5663
▁photos	-11.5663
▁picks	-11.5663
▁picnic	-11.5663
▁pieces	-11.5663
▁pigeon	-11.5663
▁pills	-11.5663
▁pity	-11.5663
▁platting	-11.5663
▁playstation	-11.5663
▁pleasant	-11.5663
▁poisoning	-11.5663
▁poking	-11.5663
▁port	-11.5663
▁powder	-11.5663
▁premiere	-11.5663
▁print	-11.5663
▁processing	-11.5663
▁proposing	-11.5663
▁puck	-11.5663
▁pumpkin	-11.5663
▁pushed	-11.5663
▁rack	-11.5663
▁racquetball	-11.5663
▁raining	-11.5663
▁ranger	-11.5663
▁reach	-11.5663
▁refrigerator	-11.5663
▁regina	-11.5663
▁register	-11.5663
▁relaxing	-11.5663
▁remind	-11.5663
▁replace	-11.5663
▁report	-11.5663
▁reset	-11.5663
▁resume	-11.5663
▁returning	-11.5663
▁rhyme	-11.5663
▁rice	-11.5663
▁ripped	-11.5663
▁river	-11.5663
▁rolled	-11.5663
▁roller	-11.5663
▁rolling	-11.5663
▁ron	-11.5663
▁roses	-11.5663
▁row	-11.5663
▁rubbing	-11.5663
▁rugby	-11.5663
▁rumor	-11.5663
▁russian	-11.5663
▁salami	-11.5663
▁sample	-11.5663
▁sang	-11.5663
▁santa's	-11.5663
▁scenes	-11.5663
▁schedule	-11.5663
▁scouts	-11.5663
▁screwing	-11.5663
▁se	-11.5663
▁sebastian	-11.5663
▁sergei	-11.5663
▁services	-11.5663
▁serving	-11.5663
▁seventeen	-11.5663
▁seventh	-11.5663
▁shaped	-11.5663
▁shaving	-11.5663
▁sheet	-11.5663
▁shiny	-11.5663
▁shorter	-11.5663
▁shotgun	-11.5663
▁shrink	-11.5663
▁sketch	-11.5663
▁skiing	-11.5663
▁skull	-11.5663
▁sleeve	-11.5663
▁smelled	-11.5663
▁solid	-11.5663
▁solved	-11.5663
▁source	-11.5663
▁southern	-11.5663
▁species	-11.5663
▁spell	-11.5663
▁spoil	-11.5663
▁stare	-11.5663
▁sticks	-11.5663
▁stinks	-11.5663
▁string	-11.5663
▁stronger	-11.5663
▁strongest	-11.5663
▁struck	-11.5663
▁study	-11.5663
▁sub	-11.5663
▁sugar	-11.5663
▁suggestion	-11.5663
▁suicide	-11.5663
▁sum	-11.5663
▁sunday	-11.5663
▁supporting	-11.5663
▁swimmer	-11.5663
▁swimming	-11.5663
▁switched	-11.5663
▁tacos	-11.5663
▁tax	-11.5663
▁teaches	-11.5663
▁teams	-11.5663
▁teen	-11.5663
▁teeny	-11.5663
▁tenure	-11.5663
▁terry	-11.5663
▁tests	-11.5663
▁throws	-11.5663
▁timing	-11.5663
▁today's	-11.5663
▁toes	-11.5663
▁tom	-11.5663
▁tomatoes	-11.5663
▁tooth	-11.5663
▁torn	-11.5663
▁track	-11.5663
▁tray	-11.5663
▁truly	-11.5663
▁tub	-11.5663
▁tuesday	-11.5663
▁tunnel	-11.5663
▁turtle	-11.5663
▁twisted	-11.5663
▁uhhh	-11.5663
▁ultimate	-11.5663
▁underpants	-11.5663
▁understood	-11.5663
▁undress	-11.5663
▁universe	-11.5663
▁university	-11.5663
▁uptown	-11.5663
▁vacuum	-11.5663
▁vase	-11.5663
▁vcr	-11.5663
▁vein	-11.5663
▁vest	-11.5663
▁vestibule	-11.5663
▁vicar	-11.5663
▁vice	-11.5663
▁village	-11.5663
▁walkin	-11.5663
▁weak	-11.5663
▁whack	-11.5663
▁wherever	-11.5663
▁whispering	-11.5663
▁windows	-11.5663
▁winter	-11.5663
▁wisdom	-11.5663
▁witch	-11.5663
▁wrapping	-11.5663
▁yeti	-11.5663
▁yogurt	-11.5663
▁'hi	-11.7894
▁'n	-11.7894
▁'scuse	-11.7894
▁'till	-11.7894
▁150	-11.7894
▁22	-11.7894
▁500	-11.7894
▁aaah	-11.7894
▁aah	-11.7894
▁abbey	-11.7894
▁above	-11.7894
▁accepted	-11.7894
▁adams	-11.7894
▁addict	-11.7894
▁adds	-11.7894
▁aged	-11.7894
▁albino	-11.7894
▁alcohol	-11.7894
▁alert	-11.7894
▁ancient	-11.7894
▁andrea	-11.7894
▁annulled	-11.7894
▁anti	-11.7894
▁antique	-11.7894
▁anyone's	-11.7894
▁apartments	-11.7894
▁application	-11.7894
▁applying	-11.7894
▁artist	-11.7894
▁ashamed	-11.7894
▁ashley	-11.7894
▁atlas	-11.7894
▁attitude	-11.7894
▁backing	-11.7894
▁badge	-11.7894
▁bagels	-11.7894
▁baggage	-11.7894
▁bah	-11.7894
▁baked	-11.7894
▁balls	-11.7894
▁bapstein	-11.7894
▁barca	-11.7894
▁barge	-11.7894
▁barney	-11.7894
▁bars	-11.7894
▁base	-11.7894
▁basement	-11.7894
▁bathing	-11.7894
▁bears	-11.7894
▁belive	-11.7894
▁belong	-11.7894
▁bend	-11.7894
▁bernie	-11.7894
▁billy	-11.7894
▁blanket	-11.7894
▁bleeding	-11.7894
▁bloody	-11.7894
▁blouse	-11.7894
▁blows	-11.7894
▁bodies	-11.7894
▁bologna	-11.7894
▁bonding	-11.7894
▁boohaki	-11.7894
▁bothered	-11.7894
▁boutros	-11.7894
▁boyfriends	-11.7894
▁brag	-11.7894
▁breathing	-11.7894
▁brings	-11.7894
▁brooklyn	-11.7894
▁brother's	-11.7894
▁brunch	-11.7894
▁brutal	-11.7894
▁buck	-11.7894
▁buddies	-11.7894
▁bullet	-11.7894
▁burst	-11.7894
▁bust	-11.7894
▁buttons	-11.7894
▁canceled	-11.7894
▁carefully	-11.7894
▁carried	-11.7894
▁casual	-11.7894
▁catwoman	-11.7894
▁celery	-11.7894
▁celia	-11.7894
▁centerpieces	-11.7894
▁century	-11.7894
▁chanukah	-11.7894
▁chapter	-11.7894
▁charm	-11.7894
▁chased	-11.7894
▁chasing	-11.7894
▁cheap	-11.7894
▁checkbook	-11.7894
▁cheek	-11.7894
▁chelsea	-11.7894
▁chemistry	-11.7894
▁chess	-11.7894
▁chest	-11.7894
▁chimney	-11.7894
▁chinandolor	-11.7894
▁chip	-11.7894
▁chopsticks	-11.7894
▁cider	-11.7894
▁circus	-11.7894
▁clause	-11.7894
▁cleansing	-11.7894
▁clearing	-11.7894
▁clogs	-11.7894
▁closing	-11.7894
▁clubs	-11.7894
▁cologne	-11.7894
▁colonial	-11.7894
▁colors	-11.7894
▁colours	-11.7894
▁comic	-11.7894
▁comics	-11.7894
▁commando	-11.7894
▁comment	-11.7894
▁complain	-11.7894
▁complaining	-11.7894
▁compliment	-11.7894
▁concentric	-11.7894
▁concerned	-11.7894
▁cones	-11.7894
▁consuela	-11.7894
▁consummated	-11.7894
▁contestant	-11.7894
▁cooks	-11.7894
▁corn	-11.7894
▁counting	-11.7894
▁crappy	-11.7894
▁create	-11.7894
▁crib	-11.7894
▁crushed	-11.7894
▁crust	-11.7894
▁crystal	-11.7894
▁curiosity	-11.7894
▁curse	-11.7894
▁cushions	-11.7894
▁cuter	-11.7894
▁cutting	-11.7894
▁dairy	-11.7894
▁dana	-11.7894
▁dealer	-11.7894
▁december	-11.7894
▁deciding	-11.7894
▁deer	-11.7894
▁defend	-11.7894
▁degree	-11.7894
▁deliver	-11.7894
▁demi	-11.7894
▁dennis	-11.7894
▁depends	-11.7894
▁depressing	-11.7894
▁designer	-11.7894
▁developed	-11.7894
▁devil	-11.7894
▁diego	-11.7894
▁dime	-11.7894
▁directly	-11.7894
▁disappointed	-11.7894
▁discount	-11.7894
▁discovered	-11.7894
▁discussed	-11.7894
▁discussion	-11.7894
▁ditch	-11.7894
▁dive	-11.7894
▁divide	-11.7894
▁division	-11.7894
▁docks	-11.7894
▁dog's	-11.7894
▁donate	-11.7894
▁doors	-11.7894
▁drama	-11.7894
▁dramatic	-11.7894
▁drank	-11.7894
▁dreamt	-11.7894
▁drill	-11.7894
▁drug	-11.7894
▁drunken	-11.7894
▁du	-11.7894
▁earn	-11.7894
▁ease	-11.7894
▁edges	-11.7894
▁electric	-11.7894
▁emily's	-11.7894
▁entered	-11.7894
▁entirely	-11.7894
▁erased	-11.7894
▁eric	-11.7894
▁escrow	-11.7894
▁espn	-11.7894
▁exam	-11.7894
▁exercise	-11.7894
▁explanation	-11.7894
▁extremely	-11.7894
▁eyre	-11.7894
▁facing	-11.7894
▁factor	-11.7894
▁factory	-11.7894
▁faith	-11.7894
▁faked	-11.7894
▁fantasy	-11.7894
▁fianc	-11.7894
▁fiancee	-11.7894
▁fifteenth	-11.7894
▁financial	-11.7894
▁fishing	-11.7894
▁fist	-11.7894
▁fits	-11.7894
▁fixing	-11.7894
▁flame	-11.7894
▁forest	-11.7894
▁forgetting	-11.7894
▁fork	-11.7894
▁fought	-11.7894
▁foundation	-11.7894
▁freaks	-11.7894
▁freeze	-11.7894
▁freezing	-11.7894
▁friendly	-11.7894
▁frightening	-11.7894
▁frown	-11.7894
▁fully	-11.7894
▁fuzzy	-11.7894
▁gain	-11.7894
▁gathered	-11.7894
▁ghosts	-11.7894
▁gladiator	-11.7894
▁goldberg	-11.7894
▁golden	-11.7894
▁goodie	-11.7894
▁goodness	-11.7894
▁gooood	-11.7894
▁gooooood	-11.7894
▁gorilla	-11.7894
▁grabs	-11.7894
▁grandchildren	-11.7894
▁grapes	-11.7894
▁gravity	-11.7894
▁grease	-11.7894
▁greece	-11.7894
▁greek	-11.7894
▁greens	-11.7894
▁greep	-11.7894
▁grocery	-11.7894
▁gumball	-11.7894
▁ham	-11.7894
▁hammock	-11.7894
▁handcuffs	-11.7894
▁hanger	-11.7894
▁hangin	-11.7894
▁happily	-11.7894
▁happiness	-11.7894
▁hardware	-11.7894
▁harm	-11.7894
▁hears	-11.7894
▁heaven	-11.7894
▁heston	-11.7894
▁higher	-11.7894
▁hiking	-11.7894
▁holds	-11.7894
▁homemade	-11.7894
▁honesty	-11.7894
▁hooking	-11.7894
▁hoop	-11.7894
▁hopping	-11.7894
▁hotter	-11.7894
▁hottest	-11.7894
▁however	-11.7894
▁huggin	-11.7894
▁hugs	-11.7894
▁hum	-11.7894
▁humidity	-11.7894
▁imagined	-11.7894
▁importantly	-11.7894
▁independent	-11.7894
▁indians	-11.7894
▁initials	-11.7894
▁insanely	-11.7894
▁inspector	-11.7894
▁instincts	-11.7894
▁intelligent	-11.7894
▁intuitive	-11.7894
▁inviting	-11.7894
▁italy	-11.7894
▁item	-11.7894
▁itself	-11.7894
▁jackets	-11.7894
▁jell	-11.7894
▁jerks	-11.7894
▁jet	-11.7894
▁jewelry	-11.7894
▁jingle	-11.7894
▁jones	-11.7894
▁journey	-11.7894
▁ju	-11.7894
▁judges	-11.7894
▁julio	-11.7894
▁keeper	-11.7894
▁ketchup	-11.7894
▁knees	-11.7894
▁knit	-11.7894
▁kook	-11.7894
▁krog	-11.7894
▁ladyfingers	-11.7894
▁landlord	-11.7894
▁lasagne	-11.7894
▁laughter	-11.7894
▁lease	-11.7894
▁led	-11.7894
▁lent	-11.7894
▁lesabre	-11.7894
▁licking	-11.7894
▁liking	-11.7894
▁limit	-11.7894
▁limited	-11.7894
▁lined	-11.7894
▁lingerie	-11.7894
▁literally	-11.7894
▁load	-11.7894
▁loan	-11.7894
▁loins	-11.7894
▁longest	-11.7894
▁loss	-11.7894
▁louder	-11.7894
▁lounger	-11.7894
▁lower	-11.7894
▁luckily	-11.7894
▁lurker	-11.7894
▁maccabees	-11.7894
▁mah	-11.7894
▁mahi	-11.7894
▁manage	-11.7894
▁manager	-11.7894
▁margarita	-11.7894
▁martin	-11.7894
▁master	-11.7894
▁maurice	-11.7894
▁measure	-11.7894
▁meddle	-11.7894
▁mento	-11.7894
▁mesozoic	-11.7894
▁miles	-11.7894
▁mo	-11.7894
▁mole	-11.7894
▁mop	-11.7894
▁movin	-11.7894
▁mud	-11.7894
▁muscles	-11.7894
▁museums	-11.7894
▁nail	-11.7894
▁nailed	-11.7894
▁napkin	-11.7894
▁napping	-11.7894
▁narrowed	-11.7894
▁naughty	-11.7894
▁nauseous	-11.7894
▁needing	-11.7894
▁neighbor	-11.7894
▁nerve	-11.7894
▁newark	-11.7894
▁newspaper	-11.7894
▁newspapers	-11.7894
▁nicest	-11.7894
▁ninth	-11.7894
▁nobody's	-11.7894
▁nooooooooo	-11.7894
▁nor	-11.7894
▁north	-11.7894
▁notes	-11.7894
▁odd	-11.7894
▁offense	-11.7894
▁ohio	-11.7894
▁onion	-11.7894
▁oohh	-11.7894
▁oooooh	-11.7894
▁oughta	-11.7894
▁overheard	-11.7894
▁owen	-11.7894
▁owner	-11.7894
▁p	-11.7894
▁pacino	-11.7894
▁pacino's	-11.7894
▁package	-11.7894
▁pah	-11.7894
▁painting	-11.7894
▁panicked	-11.7894
▁panties	-11.7894
▁papers	-11.7894
▁pardon	-11.7894
▁partners	-11.7894
▁pat	-11.7894
▁patient	-11.7894
▁paulo	-11.7894
▁pearls	-11.7894
▁peeing	-11.7894
▁peeves	-11.7894
▁perfume	-11.7894
▁pete's	-11.7894
▁peter	-11.7894
▁ph	-11.7894
▁phalange	-11.7894
▁phd	-11.7894
▁physical	-11.7894
▁picturing	-11.7894
▁pilgrims	-11.7894
▁pill	-11.7894
▁pimp	-11.7894
▁pins	-11.7894
▁pissed	-11.7894
▁pizzas	-11.7894
▁plants	-11.7894
▁players	-11.7894
▁plugs	-11.7894
▁poke	-11.7894
▁pong	-11.7894
▁pooped	-11.7894
▁popped	-11.7894
▁popping	-11.7894
▁postpone	-11.7894
▁pour	-11.7894
▁powerball	-11.7894
▁powers	-11.7894
▁practical	-11.7894
▁practically	-11.7894
▁practicing	-11.7894
▁prep	-11.7894
▁preparing	-11.7894
▁presentation	-11.7894
▁printed	-11.7894
▁product	-11.7894
▁project	-11.7894
▁prom	-11.7894
▁promoted	-11.7894
▁pronounce	-11.7894
▁proposal	-11.7894
▁punish	-11.7894
▁pure	-11.7894
▁purifier	-11.7894
▁quietly	-11.7894
▁race	-11.7894
▁raised	-11.7894
▁raising	-11.7894
▁rangers	-11.7894
▁rate	-11.7894
▁ravioli	-11.7894
▁razor	-11.7894
▁reasonable	-11.7894
▁referring	-11.7894
▁regatta	-11.7894
▁relieved	-11.7894
▁remembering	-11.7894
▁repeat	-11.7894
▁ribbon	-11.7894
▁riding	-11.7894
▁righty	-11.7894
▁ripping	-11.7894
▁robe	-11.7894
▁robots	-11.7894
▁rode	-11.7894
▁rosita	-11.7894
▁rosselini	-11.7894
▁rounds	-11.7894
▁rubber	-11.7894
▁rude	-11.7894
▁russia	-11.7894
▁sailor	-11.7894
▁sakes	-11.7894
▁sales	-11.7894
▁salon	-11.7894
▁salts	-11.7894
▁sand	-11.7894
▁sarah	-11.7894
▁sarcastic	-11.7894
▁satan	-11.7894
▁sayin	-11.7894
▁scaring	-11.7894
▁scores	-11.7894
▁scotch	-11.7894
▁screen	-11.7894
▁sculpture	-11.7894
▁sentence	-11.7894
▁sentiment	-11.7894
▁several	-11.7894
▁sh	-11.7894
▁shadow	-11.7894
▁shape	-11.7894
▁sharp	-11.7894
▁shhhh	-11.7894
▁shocking	-11.7894
▁shoulda	-11.7894
▁showering	-11.7894
▁signals	-11.7894
▁signed	-11.7894
▁silk	-11.7894
▁silliness	-11.7894
▁simmons	-11.7894
▁sixty	-11.7894
▁sized	-11.7894
▁sky	-11.7894
▁slapping	-11.7894
▁sleepy	-11.7894
▁slice	-11.7894
▁slipped	-11.7894
▁snoring	-11.7894
▁snowing	-11.7894
▁soapie	-11.7894
▁spanish	-11.7894
▁spelling	-11.7894
▁spiderman	-11.7894
▁spite	-11.7894
▁spoke	-11.7894
▁sport	-11.7894
▁st	-11.7894
▁stakes	-11.7894
▁startin	-11.7894
▁starving	-11.7894
▁stevie	-11.7894
▁sticky	-11.7894
▁stoned	-11.7894
▁storm	-11.7894
▁streets	-11.7894
▁strength	-11.7894
▁stretching	-11.7894
▁studying	-11.7894
▁stung	-11.7894
▁subtle	-11.7894
▁sue	-11.7894
▁suggest	-11.7894
▁supermarket	-11.7894
▁survived	-11.7894
▁swallow	-11.7894
▁sweats	-11.7894
▁swedish	-11.7894
▁sweetest	-11.7894
▁swinging	-11.7894
▁tail	-11.7894
▁tailor	-11.7894
▁talent	-11.7894
▁taller	-11.7894
▁tank	-11.7894
▁tear	-11.7894
▁telescope	-11.7894
▁telethon	-11.7894
▁tend	-11.7894
▁tension	-11.7894
▁texas	-11.7894
▁thee	-11.7894
▁thigh	-11.7894
▁thing's	-11.7894
▁thirsty	-11.7894
▁thousands	-11.7894
▁thread	-11.7894
▁thrilled	-11.7894
▁thumb	-11.7894
▁tic	-11.7894
▁tiles	-11.7894
▁tissues	-11.7894
▁title	-11.7894
▁tortilla	-11.7894
▁traditional	-11.7894
▁traffic	-11.7894
▁transplant	-11.7894
▁tribianni	-11.7894
▁trophy	-11.7894
▁tuna	-11.7894
▁twentieth	-11.7894
▁uhhhh	-11.7894
▁unhappy	-11.7894
▁unhook	-11.7894
▁unpack	-11.7894
▁unusual	-11.7894
▁upside	-11.7894
▁uptight	-11.7894
▁valentine's	-11.7894
▁velveteen	-11.7894
▁violated	-11.7894
▁virgin	-11.7894
▁volunteer	-11.7894
▁von	-11.7894
▁waffles	-11.7894
▁wah	-11.7894
▁wander	-11.7894
▁warming	-11.7894
▁warren	-11.7894
▁watering	-11.7894
▁waving	-11.7894
▁wears	-11.7894
▁wee	-11.7894
▁weekly	-11.7894
▁wells	-11.7894
▁westchester	-11.7894
▁whistle	-11.7894
▁whites	-11.7894
▁wife's	-11.7894
▁willick	-11.7894
▁wings	-11.7894
▁wishbone	-11.7894
▁wishes	-11.7894
▁wizard	-11.7894
▁women's	-11.7894
▁wondered	-11.7894
▁worm	-11.7894
▁wrapped	-11.7894
▁wreck	-11.7894
▁wrecking	-11.7894
▁wuss	-11.7894
▁y'see	-11.7894
▁yah	-11.7894
▁yasmine	-11.7894
▁yore	-11.7894
▁yourselves	-11.7894
▁yum	-11.7894
▁'I	-12.0771
▁'a	-12.0771
▁'cha	-12.0771
▁'chand	-12.0771
▁'gum	-12.0771
▁'j	-12.0771
▁'we	-12.0771
▁10th	-12.0771
▁15th	-12.0771
▁2:00	-12.0771
▁abandonment	-12.0771
▁access	-12.0771
▁accounts	-12.0771
▁ache	-12.0771
▁activity	-12.0771
▁admirer	-12.0771
▁adventure	-12.0771
▁agents	-12.0771
▁aid	-12.0771
▁ain	-12.0771
▁alan	-12.0771
▁alarm	-12.0771
▁albums	-12.0771
▁alicia	-12.0771
▁alike	-12.0771
▁allergies	-12.0771
▁allergy	-12.0771
▁allesandro	-12.0771
▁aloof	-12.0771
▁alot	-12.0771
▁altar	-12.0771
▁amouz	-12.0771
▁amused	-12.0771
▁amusing	-12.0771
▁anchovies	-12.0771
▁andr	-12.0771
▁angelica	-12.0771
▁anger	-12.0771
▁announce	-12.0771
▁annoy	-12.0771
▁anxiety	-12.0771
▁anybody's	-12.0771
▁apologized	-12.0771
▁apologizing	-12.0771
▁appears	-12.0771
▁arcade	-12.0771
▁areas	-12.0771
▁argument	-12.0771
▁article	-12.0771
▁aruba	-12.0771
▁assumed	-12.0771
▁atmosphere	-12.0771
▁attic	-12.0771
▁aurora	-12.0771
▁awards	-12.0771
▁awareness	-12.0771
▁awwww	-12.0771
▁ay	-12.0771
▁baaad	-12.0771
▁backfire	-12.0771
▁backfired	-12.0771
▁backpack	-12.0771
▁backwards	-12.0771
▁bacon	-12.0771
▁bail	-12.0771
▁balance	-12.0771
▁balloon	-12.0771
▁bamn	-12.0771
▁barbecue	-12.0771
▁barcelona	-12.0771
▁bartender	-12.0771
▁based	-12.0771
▁baths	-12.0771
▁bathtub	-12.0771
▁battery	-12.0771
▁bean	-12.0771
▁beeps	-12.0771
▁bees	-12.0771
▁behave	-12.0771
▁believable	-12.0771
▁believes	-12.0771
▁beloved	-12.0771
▁below	-12.0771
▁belt	-12.0771
▁benefit	-12.0771
▁betcha	-12.0771
▁betrayal	-12.0771
▁beyond	-12.0771
▁bicycle	-12.0771
▁bikes	-12.0771
▁bile	-12.0771
▁biology	-12.0771
▁birthdays	-12.0771
▁bitches	-12.0771
▁bitchin	-12.0771
▁blackjack	-12.0771
▁blackout	-12.0771
▁bladder	-12.0771
▁blast	-12.0771
▁blender	-12.0771
▁bleu	-12.0771
▁bloomingdale's	-12.0771
▁blowing	-12.0771
▁blu	-12.0771
▁bluffing	-12.0771
▁bomb	-12.0771
▁booked	-12.0771
▁booth	-12.0771
▁bossy	-12.0771
▁bothering	-12.0771
▁bottles	-12.0771
▁boxers	-12.0771
▁bracelet	-12.0771
▁braverman	-12.0771
▁bravo	-12.0771
▁brenda	-12.0771
▁bridal	-12.0771
▁brilliant	-12.0771
▁bro	-12.0771
▁broad	-12.0771
▁brochures	-12.0771
▁brownie	-12.0771
▁bu	-12.0771
▁buffet	-12.0771
▁bummer	-12.0771
▁bumming	-12.0771
▁burgundy	-12.0771
▁buried	-12.0771
▁burke	-12.0771
▁burlesque	-12.0771
▁burns	-12.0771
▁busted	-12.0771
▁buys	-12.0771
▁cabinet	-12.0771
▁caf	-12.0771
▁callback	-12.0771
▁caller	-12.0771
▁canadian	-12.0771
▁canoodling	-12.0771
▁capital	-12.0771
▁captains	-12.0771
▁carcass	-12.0771
▁cared	-12.0771
▁cars	-12.0771
▁casually	-12.0771
▁categorizes	-12.0771
▁cd	-12.0771
▁centimeters	-12.0771
▁chalk	-12.0771
▁champ	-12.0771
▁chapel	-12.0771
▁characters	-12.0771
▁charging	-12.0771
▁charlton	-12.0771
▁cheated	-12.0771
▁checkout	-12.0771
▁cheeks	-12.0771
▁cheers	-12.0771
▁chewing	-12.0771
▁chippy	-12.0771
▁chords	-12.0771
▁chuck	-12.0771
▁chump	-12.0771
▁church	-12.0771
▁chute	-12.0771
▁cigarette	-12.0771
▁claim	-12.0771
▁claims	-12.0771
▁claw	-12.0771
▁clickclocken	-12.0771
▁climbed	-12.0771
▁closes	-12.0771
▁clowns	-12.0771
▁coach	-12.0771
▁coins	-12.0771
▁colleague	-12.0771
▁collect	-12.0771
▁colleen	-12.0771
▁colored	-12.0771
▁combination	-12.0771
▁comfort	-12.0771
▁comforted	-12.0771
▁committed	-12.0771
▁companies	-12.0771
▁compare	-12.0771
▁compete	-12.0771
▁compromise	-12.0771
▁concentrate	-12.0771
▁concern	-12.0771
▁confident	-12.0771
▁connection	-12.0771
▁conscious	-12.0771
▁considering	-12.0771
▁contract	-12.0771
▁convincing	-12.0771
▁copier	-12.0771
▁counselor	-12.0771
▁countdown	-12.0771
▁countries	-12.0771
▁coupon	-12.0771
▁coupons	-12.0771
▁cowgirl	-12.0771
▁cows	-12.0771
▁coz	-12.0771
▁cracked	-12.0771
▁cracks	-12.0771
▁cranberries	-12.0771
▁crapping	-12.0771
▁craving	-12.0771
▁craziest	-12.0771
▁crimes	-12.0771
▁crowd	-12.0771
▁cruise	-12.0771
▁cuddlily	-12.0771
▁cursed	-12.0771
▁cushion	-12.0771
▁customer	-12.0771
▁d'know	-12.0771
▁d'ya	-12.0771
▁dah	-12.0771
▁dances	-12.0771
▁darling	-12.0771
▁daughter's	-12.0771
▁dave	-12.0771
▁davis	-12.0771
▁debbie	-12.0771
▁decent	-12.0771
▁deck	-12.0771
▁decorate	-12.0771
▁definition	-12.0771
▁delivered	-12.0771
▁design	-12.0771
▁details	-12.0771
▁detective	-12.0771
▁devastated	-12.0771
▁dialing	-12.0771
▁digital	-12.0771
▁dilated	-12.0771
▁dining	-12.0771
▁direction	-12.0771
▁dirk	-12.0771
▁dirt	-12.0771
▁disaster	-12.0771
▁dismiss	-12.0771
▁display	-12.0771
▁disposable	-12.0771
▁doctoral	-12.0771
▁dokey	-12.0771
▁donated	-12.0771
▁donation	-12.0771
▁donna	-12.0771
▁donuts	-12.0771
▁dool	-12.0771
▁doorknob	-12.0771
▁dot	-12.0771
▁doubts	-12.0771
▁dough	-12.0771
▁dove	-12.0771
▁dragged	-12.0771
▁dragging	-12.0771
▁drapes	-12.0771
▁drawers	-12.0771
▁dreidel	-12.0771
▁dumpster	-12.0771
▁duties	-12.0771
▁duty	-12.0771
▁dwha	-12.0771
▁earhart	-12.0771
▁easiest	-12.0771
▁eaten	-12.0771
▁efficient	-12.0771
▁ehhh	-12.0771
▁eighth	-12.0771
▁elbow	-12.0771
▁electricity	-12.0771
▁elegant	-12.0771
▁embarrassment	-12.0771
▁emergencies	-12.0771
▁empire	-12.0771
▁ending	-12.0771
▁entice	-12.0771
▁equally	-12.0771
▁erase	-12.0771
▁espresso	-12.0771
▁est	-12.0771
▁established	-12.0771
▁european	-12.0771
▁eva	-12.0771
▁evaluations	-12.0771
▁eventually	-12.0771
▁everybody's	-12.0771
▁evicted	-12.0771
▁ewwwww	-12.0771
▁exchanged	-12.0771
▁exhibit	-12.0771
▁exist	-12.0771
▁experiments	-12.0771
▁expired	-12.0771
▁explode	-12.0771
▁exposure	-12.0771
▁express	-12.0771
▁expression	-12.0771
▁extended	-12.0771
▁extinct	-12.0771
▁eyed	-12.0771
▁factoring	-12.0771
▁faking	-12.0771
▁fame	-12.0771
▁farm	-12.0771
▁fascinating	-12.0771
▁fate	-12.0771
▁favour	-12.0771
▁fed	-12.0771
▁fella	-12.0771
▁fertility	-12.0771
▁fest	-12.0771
▁fetch	-12.0771
▁fights	-12.0771
▁filling	-12.0771
▁filthy	-12.0771
▁fires	-12.0771
▁fishnet	-12.0771
▁flattering	-12.0771
▁flesh	-12.0771
▁florida	-12.0771
▁flung	-12.0771
▁flyers	-12.0771
▁foam	-12.0771
▁focusing	-12.0771
▁fooled	-12.0771
▁forbidden	-12.0771
▁forehead	-12.0771
▁forgiven	-12.0771
▁fort	-12.0771
▁fortune	-12.0771
▁frame	-12.0771
▁fran	-12.0771
▁frankie	-12.0771
▁freakishly	-12.0771
▁freaky	-12.0771
▁fried	-12.0771
▁frosting	-12.0771
▁frowned	-12.0771
▁frustrated	-12.0771
▁fund	-12.0771
▁gate	-12.0771
▁gdcr	-12.0771
▁gear	-12.0771
▁gel	-12.0771
▁gellar	-12.0771
▁geller's	-12.0771
▁gellers	-12.0771
▁genie	-12.0771
▁geography	-12.0771
▁gin	-12.0771
▁girabaldi	-12.0771
▁glamorous	-12.0771
▁gloria	-12.0771
▁god's	-12.0771
▁godfather	-12.0771
▁goods	-12.0771
▁google	-12.0771
▁goose	-12.0771
▁gown	-12.0771
▁graduate	-12.0771
▁grandfather	-12.0771
▁grandmother's	-12.0771
▁grape	-12.0771
▁green's	-12.0771
▁grew	-12.0771
▁grip	-12.0771
▁grows	-12.0771
▁guilt	-12.0771
▁guts	-12.0771
▁haa	-12.0771
▁halls	-12.0771
▁hammered	-12.0771
▁hamster	-12.0771
▁handful	-12.0771
▁handled	-12.0771
▁handy	-12.0771
▁happiest	-12.0771
▁haunted	-12.0771
▁haze	-12.0771
▁hearts	-12.0771
▁heldi	-12.0771
▁helicopter	-12.0771
▁hers	-12.0771
▁hiding	-12.0771
▁hilarious	-12.0771
▁hogging	-12.0771
▁honored	-12.0771
▁hoot	-12.0771
▁hopeless	-12.0771
▁horribly	-12.0771
▁hoyt	-12.0771
▁humans	-12.0771
▁humiliated	-12.0771
▁hummina	-12.0771
▁hump	-12.0771
▁hundreds	-12.0771
▁hypnosis	-12.0771
▁hypothetically	-12.0771
▁ick	-12.0771
▁ideal	-12.0771
▁illinois	-12.0771
▁immediately	-12.0771
▁inches	-12.0771
▁indiana	-12.0771
▁informed	-12.0771
▁ing	-12.0771
▁ingredient	-12.0771
▁inn	-12.0771
▁innocent	-12.0771
▁instance	-12.0771
▁integrity	-12.0771
▁interns	-12.0771
▁interviewing	-12.0771
▁intimidating	-12.0771
▁intrigued	-12.0771
▁introduced	-12.0771
▁invest	-12.0771
▁iron	-12.0771
▁irrational	-12.0771
▁japan	-12.0771
▁jars	-12.0771
▁jazz	-12.0771
▁jennifer	-12.0771
▁jll	-12.0771
▁joined	-12.0771
▁joining	-12.0771
▁joint	-12.0771
▁judgment	-12.0771
▁juicy	-12.0771
▁kangaroo	-12.0771
▁kappa	-12.0771
▁karate	-12.0771
▁karma	-12.0771
▁ken	-12.0771
▁kid's	-12.0771
▁killer	-12.0771
▁kilmer	-12.0771
▁kindergarten	-12.0771
▁knitting	-12.0771
▁knives	-12.0771
▁knocking	-12.0771
▁knowledge	-12.0771
▁kristin	-12.0771
▁lace	-12.0771
▁ladle	-12.0771
▁lamaze	-12.0771
▁lance	-12.0771
▁languages	-12.0771
▁laser	-12.0771
▁latest	-12.0771
▁laundry's	-12.0771
▁laurie	-12.0771
▁lawn	-12.0771
▁laying	-12.0771
▁lazy	-12.0771
▁leaned	-12.0771
▁lectures	-12.0771
▁lee	-12.0771
▁lemme	-12.0771
▁lennart	-12.0771
▁lenny	-12.0771
▁liaisons	-12.0771
▁liam	-12.0771
▁libe	-12.0771
▁liberty	-12.0771
▁licorice	-12.0771
▁lifting	-12.0771
▁lilly	-12.0771
▁limb	-12.0771
▁lincoln	-12.0771
▁linda	-12.0771
▁linen	-12.0771
▁lining	-12.0771
▁litigious	-12.0771
▁lockhart	-12.0771
▁locking	-12.0771
▁lodged	-12.0771
▁log	-12.0771
▁lorkins	-12.0771
▁lounge	-12.0771
▁lovers	-12.0771
▁lrr	-12.0771
▁luggage	-12.0771
▁lure	-12.0771
▁macadamia	-12.0771
▁macbeth	-12.0771
▁madam	-12.0771
▁madness	-12.0771
▁madre	-12.0771
▁mae	-12.0771
▁magician	-12.0771
▁mama	-12.0771
▁mar	-12.0771
▁maria	-12.0771
▁marinara	-12.0771
▁mark's	-12.0771
▁marks	-12.0771
▁martini	-12.0771
▁mascara	-12.0771
▁masculine	-12.0771
▁mashuga	-12.0771
▁mass	-12.0771
▁massaged	-12.0771
▁massaging	-12.0771
▁mate	-12.0771
▁matt	-12.0771
▁mayhem	-12.0771
▁mayor	-12.0771
▁meaning	-12.0771
▁meaningless	-12.0771
▁meatball	-12.0771
▁meddled	-12.0771
▁meg	-12.0771
▁mel	-12.0771
▁memorial	-12.0771
▁memorize	-12.0771
▁memorized	-12.0771
▁memory	-12.0771
▁method	-12.0771
▁mh	-12.0771
▁milkshake	-12.0771
▁millennium	-12.0771
▁miller	-12.0771
▁mine's	-12.0771
▁minsk	-12.0771
▁mint	-12.0771
▁mischievous	-12.0771
▁mistakes	-12.0771
▁misunderstood	-12.0771
▁mittens	-12.0771
▁model	-12.0771
▁models	-12.0771
▁moisturiser	-12.0771
▁moments	-12.0771
▁mommies	-12.0771
▁monana	-12.0771
▁monroe	-12.0771
▁morse	-12.0771
▁musta	-12.0771
▁mustard	-12.0771
▁mystery	-12.0771
▁naturally	-12.0771
▁nazis	-12.0771
▁necessary	-12.0771
▁needle	-12.0771
▁neighborhood	-12.0771
▁neil	-12.0771
▁net	-12.0771
▁niece	-12.0771
▁nightstand	-12.0771
▁nighttime	-12.0771
▁nineteen	-12.0771
▁nodded	-12.0771
▁noon	-12.0771
▁noooooooo	-12.0771
▁nuh	-12.0771
▁oatmeal	-12.0771
▁obsessed	-12.0771
▁obsession	-12.0771
▁obsessive	-12.0771
▁ocean	-12.0771
▁october	-12.0771
▁offers	-12.0771
▁oils	-12.0771
▁okaaay	-12.0771
▁omelet	-12.0771
▁onstage	-12.0771
▁ooohh	-12.0771
▁oooohh	-12.0771
▁opener	-12.0771
▁oprah	-12.0771
▁options	-12.0771
▁organize	-12.0771
▁ot	-12.0771
▁ouch	-12.0771
▁outgoing	-12.0771
▁overweight	-12.0771
▁owes	-12.0771
▁owww	-12.0771
▁oy	-12.0771
▁p.s	-12.0771
▁pac	-12.0771
▁pajmena	-12.0771
▁paleontologists	-12.0771
▁pantyhose	-12.0771
▁paperwork	-12.0771
▁paradise	-12.0771
▁particular	-12.0771
▁partly	-12.0771
▁partying	-12.0771
▁passes	-12.0771
▁passing	-12.0771
▁passionate	-12.0771
▁paste	-12.0771
▁pastrami	-12.0771
▁path	-12.0771
▁peach	-12.0771
▁peanuts	-12.0771
▁pedicures	-12.0771
▁pennsylvania	-12.0771
▁performing	-12.0771
▁perk	-12.0771
▁phasing	-12.0771
▁phenomenon	-12.0771
▁phoe	-12.0771
▁phones	-12.0771
▁piano	-12.0771
▁pictionary	-12.0771
▁pillowcase	-12.0771
▁pillows	-12.0771
▁ping	-12.0771
▁pit	-12.0771
▁pitch	-12.0771
▁pitched	-12.0771
▁plains	-12.0771
▁planet	-12.0771
▁plant	-12.0771
▁poconos	-12.0771
▁poetry	-12.0771
▁pointer	-12.0771
▁pointing	-12.0771
▁pooh	-12.0771
▁poop	-12.0771
▁porch	-12.0771
▁possibility	-12.0771
▁prettiest	-12.0771
▁pretzel	-12.0771
▁pribe	-12.0771
▁primary	-12.0771
▁prince	-12.0771
▁pro	-12.0771
▁profession	-12.0771
▁profile	-12.0771
▁program	-12.0771
▁proof	-12.0771
▁proofing	-12.0771
▁pros	-12.0771
▁protective	-12.0771
▁proves	-12.0771
▁psychiatrist	-12.0771
▁psychology	-12.0771
▁punches	-12.0771
▁punk	-12.0771
▁puppet	-12.0771
▁puzzles	-12.0771
▁pyramid	-12.0771
▁questionable	-12.0771
▁raccoon	-12.0771
▁racist	-12.0771
▁racquet	-12.0771
▁rage	-12.0771
▁rainbow	-12.0771
▁ramoray	-12.0771
▁raquel	-12.0771
▁rare	-12.0771
▁rat	-12.0771
▁raw	-12.0771
▁react	-12.0771
▁realistic	-12.0771
▁realtor	-12.0771
▁receipt	-12.0771
▁recent	-12.0771
▁reconfiguration	-12.0771
▁reference	-12.0771
▁refers	-12.0771
▁regional	-12.0771
▁rejection	-12.0771
▁rematch	-12.0771
▁reporter	-12.0771
▁reschedule	-12.0771
▁response	-12.0771
▁restraining	-12.0771
▁resum	-12.0771
▁retract	-12.0771
▁rhymes	-12.0771
▁rib	-12.0771
▁ridiculously	-12.0771
▁rightie	-12.0771
▁risk	-12.0771
▁ritual	-12.0771
▁rocked	-12.0771
▁role	-12.0771
▁ronni	-12.0771
▁rookie	-12.0771
▁rope	-12.0771
▁rose	-12.0771
▁rossie	-12.0771
▁rosss	-12.0771
▁rum	-12.0771
▁rushed	-12.0771
▁ryder	-12.0771
▁sabbatical	-12.0771
▁safely	-12.0771
▁safety	-12.0771
▁sail	-12.0771
▁sandrine	-12.0771
▁sapien	-12.0771
▁satin	-12.0771
▁saucy	-12.0771
▁scale	-12.0771
▁scariest	-12.0771
▁scheduled	-12.0771
▁schools	-12.0771
▁scientists	-12.0771
▁scissors	-12.0771
▁scone	-12.0771
▁scrappy	-12.0771
▁scum	-12.0771
▁seasons	-12.0771
▁secretly	-12.0771
▁secure	-12.0771
▁sediment	-12.0771
▁seduce	-12.0771
▁seed	-12.0771
▁seize	-12.0771
▁sends	-12.0771
▁sensed	-12.0771
▁sensing	-12.0771
▁series	-12.0771
▁session	-12.0771
▁sets	-12.0771
▁settled	-12.0771
▁sexuality	-12.0771
▁shaker	-12.0771
▁shared	-12.0771
▁sharing	-12.0771
▁shark	-12.0771
▁shelf	-12.0771
▁shelley	-12.0771
▁shhhhh	-12.0771
▁shout	-12.0771
▁shovel	-12.0771
▁showers	-12.0771
▁shown	-12.0771
▁shrill	-12.0771
▁shush	-12.0771
▁significant	-12.0771
▁similar	-12.0771
▁simon	-12.0771
▁situations	-12.0771
▁ski	-12.0771
▁skirts	-12.0771
▁smack	-12.0771
▁smallest	-12.0771
▁smoker	-12.0771
▁smokey	-12.0771
▁snacks	-12.0771
▁snooty	-12.0771
▁snore	-12.0771
▁solve	-12.0771
▁someplace	-12.0771
▁soy	-12.0771
▁spaceship	-12.0771
▁spackel	-12.0771
▁spaghetti	-12.0771
▁speaker	-12.0771
▁specific	-12.0771
▁specifics	-12.0771
▁spectacular	-12.0771
▁speedo	-12.0771
▁spill	-12.0771
▁spoiled	-12.0771
▁spoken	-12.0771
▁sprouts	-12.0771
▁spud	-12.0771
▁stalk	-12.0771
▁stamps	-12.0771
▁standard	-12.0771
▁stands	-12.0771
▁statement	-12.0771
▁statistical	-12.0771
▁steps	-12.0771
▁stereo	-12.0771
▁stew	-12.0771
▁stock	-12.0771
▁stockings	-12.0771
▁storage	-12.0771
▁stores	-12.0771
▁stress	-12.0771
▁strips	-12.0771
▁stryker	-12.0771
▁style	-12.0771
▁subletting	-12.0771
▁success	-12.0771
▁successful	-12.0771
▁sucker	-12.0771
▁suds	-12.0771
▁suede	-12.0771
▁suggesting	-12.0771
▁supervisor	-12.0771
▁supplies	-12.0771
▁supported	-12.0771
▁supposedly	-12.0771
▁sur	-12.0771
▁susie	-12.0771
▁suspicious	-12.0771
▁sweatshirt	-12.0771
▁sweeping	-12.0771
▁swordfish	-12.0771
▁swore	-12.0771
▁syl	-12.0771
▁sympathy	-12.0771
▁ta	-12.0771
▁tale	-12.0771
▁tampons	-12.0771
▁tarantula	-12.0771
▁technical	-12.0771
▁teddy	-12.0771
▁telephone	-12.0771
▁tequila	-12.0771
▁terminal	-12.0771
▁thanksgivings	-12.0771
▁theatre	-12.0771
▁theirs	-12.0771
▁theoretically	-12.0771
▁therapy	-12.0771
▁thermos	-12.0771
▁tiara	-12.0771
▁tile	-12.0771
▁time's	-12.0771
▁timmy	-12.0771
▁tiney	-12.0771
▁tipped	-12.0771
▁titanic	-12.0771
▁toll	-12.0771
▁tootsie	-12.0771
▁tooty	-12.0771
▁topless	-12.0771
▁touchie	-12.0771
▁tour	-12.0771
▁tournament	-12.0771
▁towards	-12.0771
▁towing	-12.0771
▁trading	-12.0771
▁tradition	-12.0771
▁tragic	-12.0771
▁training	-12.0771
▁transferred	-12.0771
▁translator	-12.0771
▁transmission	-12.0771
▁transponce	-12.0771
▁transponding	-12.0771
▁transpondster	-12.0771
▁trapped	-12.0771
▁trays	-12.0771
▁treasure	-12.0771
▁triumph	-12.0771
▁trppd	-12.0771
▁trusted	-12.0771
▁turtles	-12.0771
▁tuxedo	-12.0771
▁tuxedos	-12.0771
▁tuxes	-12.0771
▁tweezers	-12.0771
▁types	-12.0771
▁uck	-12.0771
▁uhuh	-12.0771
▁ummm	-12.0771
▁unattended	-12.0771
▁underdog	-12.0771
▁understands	-12.0771
▁unfortunate	-12.0771
▁unlock	-12.0771
▁unstable	-12.0771
▁upstate	-12.0771
▁urgent	-12.0771
▁uses	-12.0771
▁utah	-12.0771
▁vagina	-12.0771
▁val	-12.0771
▁vegetables	-12.0771
▁vests	-12.0771
▁vibe	-12.0771
▁videos	-12.0771
▁violation	-12.0771
▁violent	-12.0771
▁visa	-12.0771
▁vision	-12.0771
▁vodka	-12.0771
▁volcano	-12.0771
▁vous	-12.0771
▁vstbl	-12.0771
▁vulnerable	-12.0771
▁waitin	-12.0771
▁walkman	-12.0771
▁wandering	-12.0771
▁wasting	-12.0771
▁watchin	-12.0771
▁wave	-12.0771
▁waxine	-12.0771
▁wedgies	-12.0771
▁weebles	-12.0771
▁weee	-12.0771
▁weights	-12.0771
▁weirdo	-12.0771
▁westminster	-12.0771
▁what'm	-12.0771
▁wholesome	-12.0771
▁wide	-12.0771
▁widow	-12.0771
▁wiggle	-12.0771
▁wildness	-12.0771
▁windshield	-12.0771
▁wished	-12.0771
▁wood	-12.0771
▁worker	-12.0771
▁workout	-12.0771
▁wound	-12.0771
▁wrestle	-12.0771
▁writers	-12.0771
▁wth	-12.0771
▁yams	-12.0771
▁yards	-12.0771
▁yearbook	-12.0771
▁yesterday's	-12.0771
▁zelda	-12.0771
▁zero	-12.0771
▁zip	-12.0771
▁'bert	-12.4826
▁'big	-12.4826
▁'bring	-12.4826
▁'c	-12.4826
▁'days	-12.4826
▁'excuse	-12.4826
▁'it	-12.4826
▁'javu	-12.4826
▁'joincidence	-12.4826
▁'joker	-12.4826
▁'look	-12.4826
▁'love	-12.4826
▁'no	-12.4826
▁'not	-12.4826
▁'poker	-12.4826
▁'s'funny	-12.4826
▁'so	-12.4826
▁'the	-12.4826
▁'what	-12.4826
▁'yes	-12.4826
▁0	-12.4826
▁152	-12.4826
▁15s	-12.4826
▁2002	-12.4826
▁21	-12.4826
▁21st	-12.4826
▁55	-12.4826
▁5:00	-12.4826
▁a.m	-12.4826
▁aa	-12.4826
▁aaaaaahhhh	-12.4826
▁aaahhh	-12.4826
▁aaron	-12.4826
▁ability	-12.4826
▁abort	-12.4826
▁abott	-12.4826
▁absolute	-12.4826
▁absorb	-12.4826
▁abysmal	-12.4826
▁accepting	-12.4826
▁adam	-12.4826
▁addressed	-12.4826
▁adjusting	-12.4826
▁admire	-12.4826
▁adopt	-12.4826
▁advised	-12.4826
▁affect	-12.4826
▁agreeing	-12.4826
▁agrees	-12.4826
▁ahhhhh	-12.4826
▁aide	-12.4826
▁aids	-12.4826
▁albany	-12.4826
▁alby	-12.4826
▁alessandro	-12.4826
▁alex	-12.4826
▁alexandra	-12.4826
▁allow	-12.4826
▁alors	-12.4826
▁alphabet	-12.4826
▁altered	-12.4826
▁altering	-12.4826
▁alternative	-12.4826
▁altman	-12.4826
▁amazingly	-12.4826
▁amelia	-12.4826
▁ameri	-12.4826
▁amish	-12.4826
▁ammonia	-12.4826
▁analysis	-12.4826
▁anderson	-12.4826
▁andie	-12.4826
▁angel	-12.4826
▁angela's	-12.4826
▁angle	-12.4826
▁ann	-12.4826
▁anna	-12.4826
▁annabelle	-12.4826
▁annual	-12.4826
▁anonymous	-12.4826
▁answered	-12.4826
▁antacids	-12.4826
▁ante	-12.4826
▁anyways	-12.4826
▁apollo	-12.4826
▁apologies	-12.4826
▁apostrophe	-12.4826
▁appear	-12.4826
▁appetite	-12.4826
▁appetizer	-12.4826
▁applicants	-12.4826
▁appointments	-12.4826
▁appreciated	-12.4826
▁approaching	-12.4826
▁approved	-12.4826
▁aptitude	-12.4826
▁arghhhh	-12.4826
▁argue	-12.4826
▁arguing	-12.4826
▁armageddon	-12.4826
▁army	-12.4826
▁aroma	-12.4826
▁arranged	-12.4826
▁arrest	-12.4826
▁arthur	-12.4826
▁ascot	-12.4826
▁asian	-12.4826
▁askin	-12.4826
▁assistants	-12.4826
▁assure	-12.4826
▁assured	-12.4826
▁asteroids	-12.4826
▁atlanta	-12.4826
▁atomic	-12.4826
▁attacked	-12.4826
▁au	-12.4826
▁audience	-12.4826
▁audio	-12.4826
▁auditioning	-12.4826
▁aura	-12.4826
▁authorization	-12.4826
▁avec	-12.4826
▁avenue	-12.4826
▁aversary	-12.4826
▁aversion	-12.4826
▁avoid	-12.4826
▁avoiding	-12.4826
▁awe	-12.4826
▁awhile	-12.4826
▁azzz	-12.4826
▁babysitting	-12.4826
▁backyard	-12.4826
▁baddest	-12.4826
▁baddie	-12.4826
▁badges	-12.4826
▁bagel	-12.4826
▁bagpipes	-12.4826
▁bailed	-12.4826
▁ballet	-12.4826
▁balm	-12.4826
▁bands	-12.4826
▁banner	-12.4826
▁barbara	-12.4826
▁barbie	-12.4826
▁barium	-12.4826
▁barking	-12.4826
▁basic	-12.4826
▁basinger	-12.4826
▁basted	-12.4826
▁bathrobe	-12.4826
▁baywatch	-12.4826
▁bea	-12.4826
▁beads	-12.4826
▁beam	-12.4826
▁beaming	-12.4826
▁beast	-12.4826
▁beasts	-12.4826
▁beaten	-12.4826
▁beats	-12.4826
▁becker	-12.4826
▁becomes	-12.4826
▁beds	-12.4826
▁bedtime	-12.4826
▁beefsteak	-12.4826
▁beeper	-12.4826
▁beeping	-12.4826
▁begley	-12.4826
▁behaved	-12.4826
▁bejeezus	-12.4826
▁beliefs	-12.4826
▁bells	-12.4826
▁belonged	-12.4826
▁belushi	-12.4826
▁benefits	-12.4826
▁benjamin	-12.4826
▁bent	-12.4826
▁berle	-12.4826
▁bermuda	-12.4826
▁bernie's	-12.4826
▁berry	-12.4826
▁bery	-12.4826
▁betraying	-12.4826
▁betrothed	-12.4826
▁betty	-12.4826
▁bha	-12.4826
▁bible	-12.4826
▁biblical	-12.4826
▁binding	-12.4826
▁bing's	-12.4826
▁birdie	-12.4826
▁bitten	-12.4826
▁bitter	-12.4826
▁blackberry	-12.4826
▁blade	-12.4826
▁blar	-12.4826
▁blargon	-12.4826
▁blaster	-12.4826
▁bleeth	-12.4826
▁blinding	-12.4826
▁blinds	-12.4826
▁blinking	-12.4826
▁blocking	-12.4826
▁bloo	-12.4826
▁blouses	-12.4826
▁blushing	-12.4826
▁bo	-12.4826
▁boa	-12.4826
▁bodington's	-12.4826
▁boles	-12.4826
▁bolt	-12.4826
▁bon	-12.4826
▁bonjour	-12.4826
▁boo	-12.4826
▁booger	-12.4826
▁bookcase	-12.4826
▁booths	-12.4826
▁borrowing	-12.4826
▁boss's	-12.4826
▁boston	-12.4826
▁botanist	-12.4826
▁bouche	-12.4826
▁bouillabaisse	-12.4826
▁bouncing	-12.4826
▁bouncy	-12.4826
▁bound	-12.4826
▁bouquet	-12.4826
▁braces	-12.4826
▁brackety	-12.4826
▁brake	-12.4826
▁branches	-12.4826
▁braxton	-12.4826
▁breakup	-12.4826
▁brief	-12.4826
▁brighter	-12.4826
▁britney	-12.4826
▁brosnan	-12.4826
▁brownies	-12.4826
▁brussels	-12.4826
▁buds	-12.4826
▁bulbs	-12.4826
▁bumps	-12.4826
▁bums	-12.4826
▁burden	-12.4826
▁burgers	-12.4826
▁burial	-12.4826
▁burly	-12.4826
▁burners	-12.4826
▁burnin	-12.4826
▁burning's	-12.4826
▁burping	-12.4826
▁burt	-12.4826
▁butcher	-12.4826
▁butler	-12.4826
▁butts	-12.4826
▁buzz	-12.4826
▁buzzer	-12.4826
▁c'est	-12.4826
▁ca	-12.4826
▁cable	-12.4826
▁cabs	-12.4826
▁cafe	-12.4826
▁cafeteria	-12.4826
▁cailin	-12.4826
▁calendar	-12.4826
▁callin	-12.4826
▁calvin	-12.4826
▁cameron	-12.4826
▁camped	-12.4826
▁campus	-12.4826
▁canada	-12.4826
▁canned	-12.4826
▁cannon	-12.4826
▁cans	-12.4826
▁canyon	-12.4826
▁cape	-12.4826
▁caring	-12.4826
▁carney	-12.4826
▁carnivores	-12.4826
▁carriage	-12.4826
▁carton	-12.4826
▁cases	-12.4826
▁casino	-12.4826
▁catalogs	-12.4826
▁catalogue	-12.4826
▁catches	-12.4826
▁caterers	-12.4826
▁catholic	-12.4826
▁causes	-12.4826
▁caution	-12.4826
▁cds	-12.4826
▁ce	-12.4826
▁cecilia	-12.4826
▁cellar	-12.4826
▁cent	-12.4826
▁chameleon	-12.4826
▁chamomile	-12.4826
▁chancy	-12.4826
▁chandelier	-12.4826
▁chantal	-12.4826
▁chaotic	-12.4826
▁chappy	-12.4826
▁character's	-12.4826
▁charcoal	-12.4826
▁charged	-12.4826
▁chatracus	-12.4826
▁cheapest	-12.4826
▁checkin	-12.4826
▁cheering	-12.4826
▁cherry	-12.4826
▁cheryl	-12.4826
▁cheshhh	-12.4826
▁chester	-12.4826
▁chew	-12.4826
▁chin	-12.4826
▁chinadolor	-12.4826
▁ching	-12.4826
▁chiropractor	-12.4826
▁choices	-12.4826
▁choke	-12.4826
▁choked	-12.4826
▁choking	-12.4826
▁choosing	-12.4826
▁chosen	-12.4826
▁christian	-12.4826
▁chuckles	-12.4826
▁chucky	-12.4826
▁chunk	-12.4826
▁cilantro	-12.4826
▁cinderelly	-12.4826
▁cindy	-12.4826
▁circle	-12.4826
▁cities	-12.4826
▁citizen	-12.4826
▁claire	-12.4826
▁classics	-12.4826
▁claws	-12.4826
▁cleaner	-12.4826
▁cleaners	-12.4826
▁cleared	-12.4826
▁clerk	-12.4826
▁clingy	-12.4826
▁closely	-12.4826
▁closets	-12.4826
▁clue	-12.4826
▁cocktail	-12.4826
▁cocktails	-12.4826
▁cocky	-12.4826
▁coconuts	-12.4826
▁cole	-12.4826
▁colonel	-12.4826
▁columbia	-12.4826
▁combat	-12.4826
▁comments	-12.4826
▁commission	-12.4826
▁community	-12.4826
▁commute	-12.4826
▁compartments	-12.4826
▁compass	-12.4826
▁compulsive	-12.4826
▁computers	-12.4826
▁concerning	-12.4826
▁concrete	-12.4826
▁confession	-12.4826
▁connect	-12.4826
▁consolation	-12.4826
▁constant	-12.4826
▁consumer	-12.4826
▁consummate	-12.4826
▁continue	-12.4826
▁continuing	-12.4826
▁contribution	-12.4826
▁controlled	-12.4826
▁controlling	-12.4826
▁controversial	-12.4826
▁convention	-12.4826
▁coo	-12.4826
▁cookbooks	-12.4826
▁cooked	-12.4826
▁coolest	-12.4826
▁coordinator	-12.4826
▁copies	-12.4826
▁copying	-12.4826
▁correctly	-12.4826
▁corsages	-12.4826
▁costs	-12.4826
▁coupla	-12.4826
▁cous	-12.4826
▁cousteau	-12.4826
▁covering	-12.4826
▁cracker	-12.4826
▁crackers	-12.4826
▁cramp	-12.4826
▁crank	-12.4826
▁cranky	-12.4826
▁crapweasel	-12.4826
▁crash	-12.4826
▁crashed	-12.4826
▁crawl	-12.4826
▁crawled	-12.4826
▁creature	-12.4826
▁creep	-12.4826
▁creeps	-12.4826
▁crematorium	-12.4826
▁crew	-12.4826
▁crier	-12.4826
▁cries	-12.4826
▁criticism	-12.4826
▁crossed	-12.4826
▁crotchless	-12.4826
▁cruel	-12.4826
▁crumbies	-12.4826
▁crushing	-12.4826
▁cuba	-12.4826
▁cube	-12.4826
▁cubicle	-12.4826
▁cuddled	-12.4826
▁cuddling	-12.4826
▁cuffs	-12.4826
▁culinary	-12.4826
▁culture	-12.4826
▁cupid	-12.4826
▁cupping	-12.4826
▁curl	-12.4826
▁curler	-12.4826
▁curling	-12.4826
▁curly	-12.4826
▁custody	-12.4826
▁custom	-12.4826
▁cutie	-12.4826
▁cuz	-12.4826
▁cyborg	-12.4826
▁cycle	-12.4826
▁daddie	-12.4826
▁dads	-12.4826
▁damned	-12.4826
▁danced	-12.4826
▁dancers	-12.4826
▁daniel	-12.4826
▁danny's	-12.4826
▁darnit	-12.4826
▁dart	-12.4826
▁darts	-12.4826
▁date's	-12.4826
▁daytime	-12.4826
▁dayton	-12.4826
▁dealing	-12.4826
▁dealt	-12.4826
▁dearly	-12.4826
▁decaf	-12.4826
▁definately	-12.4826
▁degrees	-12.4826
▁dehydrated	-12.4826
▁delaware	-12.4826
▁deli	-12.4826
▁delicates	-12.4826
▁demand	-12.4826
▁demon	-12.4826
▁den	-12.4826
▁dense	-12.4826
▁dental	-12.4826
▁deny	-12.4826
▁depression	-12.4826
▁deprived	-12.4826
▁derrick	-12.4826
▁describe	-12.4826
▁described	-12.4826
▁deserved	-12.4826
▁despite	-12.4826
▁destroying	-12.4826
▁destructive	-12.4826
▁detail	-12.4826
▁detergent	-12.4826
▁develop	-12.4826
▁dialect	-12.4826
▁diamond	-12.4826
▁diaz	-12.4826
▁differ	-12.4826
▁digging	-12.4826
▁dignity	-12.4826
▁dim	-12.4826
▁dimple	-12.4826
▁diner	-12.4826
▁dingy	-12.4826
▁dinner's	-12.4826
▁dinners	-12.4826
▁dino	-12.4826
▁dip	-12.4826
▁direct	-12.4826
▁directing	-12.4826
▁disagree	-12.4826
▁disappears	-12.4826
▁disappointment	-12.4826
▁disc	-12.4826
▁discomfort	-12.4826
▁disconnected	-12.4826
▁discussing	-12.4826
▁disguise	-12.4826
▁dish	-12.4826
▁disrupt	-12.4826
▁dissertation	-12.4826
▁disturb	-12.4826
▁divisional	-12.4826
▁divorcer	-12.4826
▁divorcing	-12.4826
▁dna	-12.4826
▁donating	-12.4826
▁donny	-12.4826
▁doodle	-12.4826
▁doofus	-12.4826
▁dorf	-12.4826
▁dork	-12.4826
▁dorothy	-12.4826
▁download	-12.4826
▁downtown	-12.4826
▁dozen	-12.4826
▁draddle	-12.4826
▁dragon	-12.4826
▁drain	-12.4826
▁dreamed	-12.4826
▁dreamy	-12.4826
▁dried	-12.4826
▁drift	-12.4826
▁drinkin	-12.4826
▁driven	-12.4826
▁drives	-12.4826
▁drooling	-12.4826
▁dropping	-12.4826
▁drywall	-12.4826
▁dud	-12.4826
▁dues	-12.4826
▁dug	-12.4826
▁dumping	-12.4826
▁dun	-12.4826
▁dwarf	-12.4826
▁eah	-12.4826
▁earned	-12.4826
▁earrings	-12.4826
▁easter	-12.4826
▁eater	-12.4826
▁eavesdropping	-12.4826
▁ebony	-12.4826
▁edition	-12.4826
▁educated	-12.4826
▁eee	-12.4826
▁eel	-12.4826
▁effective	-12.4826
▁effectively	-12.4826
▁egypt	-12.4826
▁eighteen	-12.4826
▁el	-12.4826
▁elaine	-12.4826
▁elbows	-12.4826
▁elderly	-12.4826
▁electromagnetic	-12.4826
▁eligible	-12.4826
▁ell	-12.4826
▁eloping	-12.4826
▁elves	-12.4826
▁embassy	-12.4826
▁embolism	-12.4826
▁embryo	-12.4826
▁embryos	-12.4826
▁embryossss	-12.4826
▁emotionally	-12.4826
▁emotions	-12.4826
▁endometria	-12.4826
▁engine	-12.4826
▁enormous	-12.4826
▁entering	-12.4826
▁enters	-12.4826
▁entertain	-12.4826
▁entitled	-12.4826
▁episode	-12.4826
▁equity	-12.4826
▁erection	-12.4826
▁ernie	-12.4826
▁errands	-12.4826
▁errors	-12.4826
▁es	-12.4826
▁escaped	-12.4826
▁escaping	-12.4826
▁essential	-12.4826
▁estate	-12.4826
▁estimated	-12.4826
▁et	-12.4826
▁eternity	-12.4826
▁ethical	-12.4826
▁evander	-12.4826
▁events	-12.4826
▁evidently	-12.4826
▁ewwww	-12.4826
▁excepted	-12.4826
▁excess	-12.4826
▁exchanges	-12.4826
▁excitement	-12.4826
▁excuses	-12.4826
▁exellent	-12.4826
▁exotic	-12.4826
▁expand	-12.4826
▁expected	-12.4826
▁expert	-12.4826
▁expires	-12.4826
▁explaining	-12.4826
▁explosion	-12.4826
▁exposed	-12.4826
▁extent	-12.4826
▁exterior	-12.4826
▁eyeballs	-12.4826
▁eyelash	-12.4826
▁eyelashes	-12.4826
▁fa	-12.4826
▁fabric	-12.4826
▁faced	-12.4826
▁facial	-12.4826
▁facts	-12.4826
▁fail	-12.4826
▁fairy	-12.4826
▁fallen	-12.4826
▁family's	-12.4826
▁fangled	-12.4826
▁farmer	-12.4826
▁fart	-12.4826
▁fascinated	-12.4826
▁fashioning	-12.4826
▁father's	-12.4826
▁fauna	-12.4826
▁feather	-12.4826
▁feature	-12.4826
▁feelin	-12.4826
▁felicity	-12.4826
▁fellow	-12.4826
▁feminist	-12.4826
▁festival	-12.4826
▁fetus	-12.4826
▁fever	-12.4826
▁fewer	-12.4826
▁fica	-12.4826
▁fighter	-12.4826
▁file	-12.4826
▁filming	-12.4826
▁filth	-12.4826
▁finest	-12.4826
▁finishing	-12.4826
▁firing	-12.4826
▁flail	-12.4826
▁flames	-12.4826
▁flan	-12.4826
▁flanen	-12.4826
▁flash	-12.4826
▁flatley	-12.4826
▁flattered	-12.4826
▁flennin	-12.4826
▁flew	-12.4826
▁flick	-12.4826
▁flimby	-12.4826
▁flipped	-12.4826
▁flipping	-12.4826
▁floopy	-12.4826
▁floozy	-12.4826
▁fluffed	-12.4826
▁fluids	-12.4826
▁flush	-12.4826
▁focused	-12.4826
▁folders	-12.4826
▁fond	-12.4826
▁foods	-12.4826
▁foothills	-12.4826
▁forcing	-12.4826
▁ford	-12.4826
▁foreign	-12.4826
▁formerly	-12.4826
▁fortunately	-12.4826
▁fossil	-12.4826
▁founded	-12.4826
▁fours	-12.4826
▁fox	-12.4826
▁foxhole	-12.4826
▁francisco	-12.4826
▁frat	-12.4826
▁freakish	-12.4826
▁fred	-12.4826
▁freud	-12.4826
▁fringe	-12.4826
▁frustrating	-12.4826
▁fudge	-12.4826
▁fuels	-12.4826
▁functions	-12.4826
▁fungus	-12.4826
▁funnier	-12.4826
▁fyi	-12.4826
▁g.i	-12.4826
▁gali	-12.4826
▁gallon	-12.4826
▁game's	-12.4826
▁garden	-12.4826
▁garfunkle	-12.4826
▁gary's	-12.4826
▁gavin	-12.4826
▁gaygas	-12.4826
▁geeky	-12.4826
▁geniuses	-12.4826
▁gently	-12.4826
▁geographically	-12.4826
▁gert	-12.4826
▁gesturing	-12.4826
▁giants	-12.4826
▁gimmie	-12.4826
▁gina	-12.4826
▁girly	-12.4826
▁glare	-12.4826
▁glen	-12.4826
▁glenda	-12.4826
▁glenn	-12.4826
▁gloves	-12.4826
▁glued	-12.4826
▁goal	-12.4826
▁goals	-12.4826
▁goats	-12.4826
▁god!is	-12.4826
▁gods	-12.4826
▁gogo	-12.4826
▁goldman	-12.4826
▁gonorrhea	-12.4826
▁goo	-12.4826
▁goody	-12.4826
▁goof	-12.4826
▁gooo	-12.4826
▁goood	-12.4826
▁goop	-12.4826
▁government	-12.4826
▁gracious	-12.4826
▁graduated	-12.4826
▁grammar	-12.4826
▁grammies	-12.4826
▁grammy	-12.4826
▁granddaughter	-12.4826
▁grath	-12.4826
▁greasy	-12.4826
▁greater	-12.4826
▁greedy	-12.4826
▁greetings	-12.4826
▁groomsmen	-12.4826
▁grounded	-12.4826
▁groundwork	-12.4826
▁guesses	-12.4826
▁guns	-12.4826
▁gut	-12.4826
▁haaa	-12.4826
▁haaaaa	-12.4826
▁habit	-12.4826
▁haha	-12.4826
▁halftime	-12.4826
▁hamm	-12.4826
▁hamper	-12.4826
▁hamsters	-12.4826
▁handbag	-12.4826
▁handcuff	-12.4826
▁handing	-12.4826
▁handwriting	-12.4826
▁hangs	-12.4826
▁harboring	-12.4826
▁harpist	-12.4826
▁harsh	-12.4826
▁hating	-12.4826
▁headache	-12.4826
▁headhunter	-12.4826
▁heading	-12.4826
▁headset	-12.4826
▁healing	-12.4826
▁heathcliff's	-12.4826
▁heating	-12.4826
▁heck	-12.4826
▁hee	-12.4826
▁heels	-12.4826
▁height	-12.4826
▁heightened	-12.4826
▁heights	-12.4826
▁hel	-12.4826
▁helicopters	-12.4826
▁hell's	-12.4826
▁hellhole	-12.4826
▁helloo	-12.4826
▁hellooo	-12.4826
▁hence	-12.4826
▁herbal	-12.4826
▁herbivores	-12.4826
▁heroin	-12.4826
▁hibachi	-12.4826
▁highlighted	-12.4826
▁highly	-12.4826
▁highway	-12.4826
▁hiiii	-12.4826
▁hitlers	-12.4826
▁hits	-12.4826
▁hiya	-12.4826
▁hmmmm	-12.4826
▁hmmmmm	-12.4826
▁hobart	-12.4826
▁hollow	-12.4826
▁hollywood	-12.4826
▁holyfield	-12.4826
▁hombre	-12.4826
▁homeless	-12.4826
▁homesick	-12.4826
▁homework	-12.4826
▁honing	-12.4826
▁hooing	-12.4826
▁hooo	-12.4826
▁hoops	-12.4826
▁horseback	-12.4826
▁horsing	-12.4826
▁hottie	-12.4826
▁how've	-12.4826
▁hugsy	-12.4826
▁humdinger	-12.4826
▁humiliate	-12.4826
▁hunger	-12.4826
▁hunk	-12.4826
▁hunting	-12.4826
▁huntley	-12.4826
▁hurely	-12.4826
▁hurting	-12.4826
▁hypothetical	-12.4826
▁iceberg	-12.4826
▁iced	-12.4826
▁icky	-12.4826
▁identified	-12.4826
▁idiots	-12.4826
▁iffy	-12.4826
▁igneous	-12.4826
▁ill	-12.4826
▁imagination	-12.4826
▁imagining	-12.4826
▁immigration	-12.4826
▁impact	-12.4826
▁impaired	-12.4826
▁impartial	-12.4826
▁impersonating	-12.4826
▁implanted	-12.4826
▁impress	-12.4826
▁impressions	-12.4826
▁indeedy	-12.4826
▁independence	-12.4826
▁individual	-12.4826
▁inexcusable	-12.4826
▁info	-12.4826
▁ingredients	-12.4826
▁initial	-12.4826
▁initiated	-12.4826
▁injury	-12.4826
▁inner	-12.4826
▁inseam	-12.4826
▁insects	-12.4826
▁inseparable	-12.4826
▁instinct	-12.4826
▁instructor	-12.4826
▁insulted	-12.4826
▁inter	-12.4826
▁internet	-12.4826
▁internship	-12.4826
▁interrupted	-12.4826
▁interviewed	-12.4826
▁investments	-12.4826
▁invisibility	-12.4826
▁involves	-12.4826
▁iris	-12.4826
▁ironic	-12.4826
▁ironically	-12.4826
▁irony	-12.4826
▁irresistible	-12.4826
▁irresponsible	-12.4826
▁isle	-12.4826
▁isolation	-12.4826
▁israeli	-12.4826
▁israels	-12.4826
▁items	-12.4826
▁ivory	-12.4826
▁jacks	-12.4826
▁jacques	-12.4826
▁jan	-12.4826
▁janice's	-12.4826
▁january	-12.4826
▁japanese	-12.4826
▁jelly	-12.4826
▁jeopardising	-12.4826
▁jesus	-12.4826
▁jew	-12.4826
▁jingles	-12.4826
▁jock	-12.4826
▁joe's	-12.4826
▁joel	-12.4826
▁jogging	-12.4826
▁jokin	-12.4826
▁joking	-12.4826
▁josephine	-12.4826
▁judged	-12.4826
▁judgement	-12.4826
▁jumbo	-12.4826
▁june	-12.4826
▁junk	-12.4826
▁jurassic	-12.4826
▁jury	-12.4826
▁justice	-12.4826
▁kane	-12.4826
▁kansas	-12.4826
▁kaplan	-12.4826
▁karen	-12.4826
▁katie	-12.4826
▁kenneth	-12.4826
▁kettle	-12.4826
▁keyboards	-12.4826
▁keycard	-12.4826
▁keystone	-12.4826
▁kiddo	-12.4826
▁kindling	-12.4826
▁kingdom	-12.4826
▁kite	-12.4826
▁kleinman	-12.4826
▁knife	-12.4826
▁knob	-12.4826
▁knockers	-12.4826
▁knockin	-12.4826
▁kopel	-12.4826
▁korea	-12.4826
▁kournikova	-12.4826
▁kung	-12.4826
▁laboratory	-12.4826
▁ladder	-12.4826
▁laminated	-12.4826
▁lamps	-12.4826
▁landed	-12.4826
▁lapse	-12.4826
▁lapsed	-12.4826
▁lasts	-12.4826
▁lations	-12.4826
▁latour	-12.4826
▁lauer	-12.4826
▁laura	-12.4826
▁lawsuit	-12.4826
▁leads	-12.4826
▁leafy	-12.4826
▁leatherface	-12.4826
▁leetch	-12.4826
▁leftover	-12.4826
▁legacy	-12.4826
▁legal	-12.4826
▁legend	-12.4826
▁legitimate	-12.4826
▁length	-12.4826
▁leonard	-12.4826
▁lesbians	-12.4826
▁lesser	-12.4826
▁levels	-12.4826
▁li	-12.4826
▁licence	-12.4826
▁lies	-12.4826
▁life's	-12.4826
▁lifeguards	-12.4826
▁lifted	-12.4826
▁lightly	-12.4826
▁likely	-12.4826
▁limes	-12.4826
▁limps	-12.4826
▁linguistics	-12.4826
▁liquorice	-12.4826
▁lisa	-12.4826
▁listens	-12.4826
▁listings	-12.4826
▁litigate	-12.4826
▁loaf	-12.4826
▁lobby	-12.4826
▁locations	-12.4826
▁locker	-12.4826
▁lollipop	-12.4826
▁lone	-12.4826
▁looong	-12.4826
▁looove	-12.4826
▁loop	-12.4826
▁loosen	-12.4826
▁los	-12.4826
▁lovin	-12.4826
▁loyal	-12.4826
▁luau	-12.4826
▁luckiest	-12.4826
▁lunges	-12.4826
▁lurk	-12.4826
▁ly	-12.4826
▁lydia	-12.4826
▁lynch	-12.4826
▁m'ap	-12.4826
▁mache	-12.4826
▁madlibs	-12.4826
▁magnet	-12.4826
▁magnets	-12.4826
▁mahogany	-12.4826
▁mailbox	-12.4826
▁main	-12.4826
▁mainly	-12.4826
▁mainsail	-12.4826
▁majored	-12.4826
▁majors	-12.4826
▁malcom	-12.4826
▁marc	-12.4826
▁marc's	-12.4826
▁marge	-12.4826
▁marijuana	-12.4826
▁marilyn	-12.4826
▁marion	-12.4826
▁marjorie	-12.4826
▁marketing	-12.4826
▁marries	-12.4826
▁marshmallow	-12.4826
▁masculinity	-12.4826
▁massacre	-12.4826
▁massager	-12.4826
▁mat	-12.4826
▁matches	-12.4826
▁matey	-12.4826
▁mattered	-12.4826
▁matthew	-12.4826
▁mattresses	-12.4826
▁maureen	-12.4826
▁max	-12.4826
▁maxim	-12.4826
▁mazel	-12.4826
▁mcdowell	-12.4826
▁mcmahon	-12.4826
▁meadow	-12.4826
▁meaningful	-12.4826
▁mechanic	-12.4826
▁mechanics	-12.4826
▁medallion	-12.4826
▁meddler	-12.4826
▁medieval	-12.4826
▁meets	-12.4826
▁megan	-12.4826
▁melanie	-12.4826
▁melrose	-12.4826
▁melting	-12.4826
▁member	-12.4826
▁memorable	-12.4826
▁ment	-12.4826
▁mentally	-12.4826
▁menu	-12.4826
▁menus	-12.4826
▁mercedes	-12.4826
▁mercial	-12.4826
▁mercy	-12.4826
▁merge	-12.4826
▁merlot	-12.4826
▁messier	-12.4826
▁messin	-12.4826
▁messy	-12.4826
▁metaphor	-12.4826
▁mia	-12.4826
▁mid	-12.4826
▁mild	-12.4826
▁military	-12.4826
▁mill	-12.4826
▁milton	-12.4826
▁mindset	-12.4826
▁miniature	-12.4826
▁minimal	-12.4826
▁mink	-12.4826
▁minx	-12.4826
▁miranda	-12.4826
▁misleading	-12.4826
▁misses	-12.4826
▁mississ	-12.4826
▁mississipi	-12.4826
▁mistaken	-12.4826
▁mitts	-12.4826
▁mmmwa	-12.4826
▁mocking	-12.4826
▁modeling	-12.4826
▁modern	-12.4826
▁moi	-12.4826
▁molly	-12.4826
▁momentary	-12.4826
▁mommie	-12.4826
▁money's	-12.4826
▁monkeys	-12.4826
▁monologue	-12.4826
▁monster	-12.4826
▁montauk	-12.4826
▁montreal	-12.4826
▁monty	-12.4826
▁moral	-12.4826
▁mores	-12.4826
▁mornings	-12.4826
▁morton	-12.4826
▁moth	-12.4826
▁mother's	-12.4826
▁mothers	-12.4826
▁motion	-12.4826
▁mount	-12.4826
▁mouse	-12.4826
▁mousse	-12.4826
▁mouths	-12.4826
▁movement	-12.4826
▁mr.heckles	-12.4826
▁mr.salty	-12.4826
▁mt	-12.4826
▁mugger	-12.4826
▁mugging	-12.4826
▁multiple	-12.4826
▁mum	-12.4826
▁mumbles	-12.4826
▁mummy	-12.4826
▁musicman	-12.4826
▁musings	-12.4826
▁musket	-12.4826
▁musketeers	-12.4826
▁mute	-12.4826
▁nakedness	-12.4826
▁name's	-12.4826
▁nana's	-12.4826
▁nanny	-12.4826
▁naples	-12.4826
▁narrow	-12.4826
▁national	-12.4826
▁ne	-12.4826
▁necessarily	-12.4826
▁ned	-12.4826
▁neighbourhood	-12.4826
▁nesele	-12.4826
▁netherlands	-12.4826
▁neurologist	-12.4826
▁neurosurgeon	-12.4826
▁nevada	-12.4826
▁newfound	-12.4826
▁newman	-12.4826
▁newsletter	-12.4826
▁ni	-12.4826
▁nicely	-12.4826
▁nicer	-12.4826
▁nickel	-12.4826
▁nicknames	-12.4826
▁nicole	-12.4826
▁noisy	-12.4826
▁nonchalant	-12.4826
▁nonono	-12.4826
▁nonsense	-12.4826
▁noone	-12.4826
▁northern	-12.4826
▁noticeable	-12.4826
▁notices	-12.4826
▁nubbin	-12.4826
▁nuclear	-12.4826
▁nursery	-12.4826
▁nutmeg	-12.4826
▁nyu	-12.4826
▁oberman	-12.4826
▁objectively	-12.4826
▁occasionally	-12.4826
▁offended	-12.4826
▁offensive	-12.4826
▁offering	-12.4826
▁officiating	-12.4826
▁og	-12.4826
▁ohhhhhhh	-12.4826
▁oi	-12.4826
▁oldest	-12.4826
▁olds	-12.4826
▁olive	-12.4826
▁olives	-12.4826
▁olympics	-12.4826
▁onions	-12.4826
▁ood	-12.4826
▁oooohhh	-12.4826
▁ooooohhhhh	-12.4826
▁opens	-12.4826
▁operate	-12.4826
▁operating	-12.4826
▁operation	-12.4826
▁operations	-12.4826
▁opium	-12.4826
▁opponent	-12.4826
▁oranges	-12.4826
▁orchard	-12.4826
▁ordinarily	-12.4826
▁ordinary	-12.4826
▁oreos	-12.4826
▁organ	-12.4826
▁organic	-12.4826
▁orson	-12.4826
▁orthodontist	-12.4826
▁oscar	-12.4826
▁ottoman	-12.4826
▁overcoat	-12.4826
▁overdue	-12.4826
▁overpriced	-12.4826
▁overseas	-12.4826
▁overslept	-12.4826
▁overview	-12.4826
▁oyster	-12.4826
▁pacts	-12.4826
▁pageant	-12.4826
▁pains	-12.4826
▁paint	-12.4826
▁painted	-12.4826
▁paints	-12.4826
▁palace	-12.4826
▁pancho	-12.4826
▁panicking	-12.4826
▁pant	-12.4826
▁papa	-12.4826
▁paranoid	-12.4826
▁parent's	-12.4826
▁parked	-12.4826
▁parking	-12.4826
▁partial	-12.4826
▁partially	-12.4826
▁patches	-12.4826
▁patience	-12.4826
▁patio	-12.4826
▁patterns	-12.4826
▁pause	-12.4826
▁pawn	-12.4826
▁pcp	-12.4826
▁peas	-12.4826
▁pecs	-12.4826
▁pee's	-12.4826
▁peek	-12.4826
▁peeking	-12.4826
▁peel	-12.4826
▁peepee	-12.4826
▁peeper's	-12.4826
▁peeve	-12.4826
▁pel	-12.4826
▁pelle	-12.4826
▁pelts	-12.4826
▁penguin	-12.4826
▁pens	-12.4826
▁performances	-12.4826
▁permanent	-12.4826
▁persuade	-12.4826
▁petite	-12.4826
▁petrie	-12.4826
▁pharmacists	-12.4826
▁phased	-12.4826
▁pheebes	-12.4826
▁phew	-12.4826
▁phillips	-12.4826
▁phoebes	-12.4826
▁phoebo	-12.4826
▁phone's	-12.4826
▁phonebook	-12.4826
▁photographer	-12.4826
▁phyllis	-12.4826
▁piccata	-12.4826
▁pictured	-12.4826
▁pierce	-12.4826
▁piggy	-12.4826
▁pillow's	-12.4826
▁pilot	-12.4826
▁pimple	-12.4826
▁pinching	-12.4826
▁pinky	-12.4826
▁pinned	-12.4826
▁pinocchio	-12.4826
▁piper	-12.4826
▁pirate	-12.4826
▁piss	-12.4826
▁pl	-12.4826
▁planetarium	-12.4826
▁playboy	-12.4826
▁playboys	-12.4826
▁player	-12.4826
▁playground	-12.4826
▁playpen	-12.4826
▁playthings	-12.4826
▁please!i	-12.4826
▁pledge	-12.4826
▁plot	-12.4826
▁pockets	-12.4826
▁poems	-12.4826
▁pogo	-12.4826
▁pointed	-12.4826
▁poison	-12.4826
▁pole	-12.4826
▁polishing	-12.4826
▁political	-12.4826
▁polo	-12.4826
▁pony	-12.4826
▁poorly	-12.4826
▁popcorn	-12.4826
▁popes	-12.4826
▁poppy	-12.4826
▁portion	-12.4826
▁portions	-12.4826
▁portuguese	-12.4826
▁posin	-12.4826
▁potatoes	-12.4826
▁potpourri	-12.4826
▁poultry	-12.4826
▁pouring	-12.4826
▁powerful	-12.4826
▁powering	-12.4826
▁practising	-12.4826
▁prague	-12.4826
▁predator	-12.4826
▁prepare	-12.4826
▁presence	-12.4826
▁pretentious	-12.4826
▁prettier	-12.4826
▁preview	-12.4826
▁previews	-12.4826
▁pricey	-12.4826
▁pricing	-12.4826
▁principles	-12.4826
▁prizes	-12.4826
▁produced	-12.4826
▁producer	-12.4826
▁producers	-12.4826
▁production	-12.4826
▁productive	-12.4826
▁products	-12.4826
▁professors	-12.4826
▁progress	-12.4826
▁property	-12.4826
▁protect	-12.4826
▁protecting	-12.4826
▁protection	-12.4826
▁protest	-12.4826
▁prototype	-12.4826
▁proudly	-12.4826
▁pry	-12.4826
▁pub	-12.4826
▁published	-12.4826
▁puddle	-12.4826
▁punched	-12.4826
▁punching	-12.4826
▁punishment	-12.4826
▁purchase	-12.4826
▁purina	-12.4826
▁purses	-12.4826
▁pushy	-12.4826
▁puss	-12.4826
▁putty	-12.4826
▁pwoblem	-12.4826
▁qualified	-12.4826
▁qualifies	-12.4826
▁qualities	-12.4826
▁quartet	-12.4826
▁questioning	-12.4826
▁quiche	-12.4826
▁quiches	-12.4826
▁quicker	-12.4826
▁qviiite	-12.4826
▁r.g	-12.4826
▁rabbits	-12.4826
▁racecar	-12.4826
▁radio	-12.4826
▁radioactive	-12.4826
▁raggedy	-12.4826
▁rains	-12.4826
▁rainy	-12.4826
▁raisin	-12.4826
▁rambled	-12.4826
▁randy	-12.4826
▁ranion's	-12.4826
▁rapist	-12.4826
▁raspberries	-12.4826
▁raspberry	-12.4826
▁rated	-12.4826
▁reacting	-12.4826
▁reader	-12.4826
▁realises	-12.4826
▁realizes	-12.4826
▁rearranged	-12.4826
▁rebuild	-12.4826
▁receive	-12.4826
▁reckless	-12.4826
▁recorded	-12.4826
▁references	-12.4826
▁referred	-12.4826
▁reflex	-12.4826
▁refundable	-12.4826
▁regard	-12.4826
▁regrets	-12.4826
▁regulars	-12.4826
▁rehearse	-12.4826
▁rehearsing	-12.4826
▁reinforcements	-12.4826
▁reject	-12.4826
▁release	-12.4826
▁relief	-12.4826
▁relinquish	-12.4826
▁relish	-12.4826
▁reliving	-12.4826
▁remaining	-12.4826
▁rented	-12.4826
▁replica	-12.4826
▁represents	-12.4826
▁resentment	-12.4826
▁residence	-12.4826
▁respecting	-12.4826
▁respects	-12.4826
▁resumes	-12.4826
▁rethink	-12.4826
▁revealing	-12.4826
▁reverend	-12.4826
▁revoir	-12.4826
▁ribbons	-12.4826
▁righteous	-12.4826
▁rights	-12.4826
▁riled	-12.4826
▁rise	-12.4826
▁risking	-12.4826
▁rita	-12.4826
▁roaming	-12.4826
▁robbins	-12.4826
▁rockefeller	-12.4826
▁rocket	-12.4826
▁rocking	-12.4826
▁rocky	-12.4826
▁rodeo	-12.4826
▁rog	-12.4826
▁rogers	-12.4826
▁rolls	-12.4826
▁romania	-12.4826
▁roomies	-12.4826
▁roomy	-12.4826
▁rossy	-12.4826
▁rrroof	-12.4826
▁rubs	-12.4826
▁rue	-12.4826
▁rug	-12.4826
▁rushing	-12.4826
▁russians	-12.4826
▁rusty	-12.4826
▁sa	-12.4826
▁sack	-12.4826
▁sacrifice	-12.4826
▁sadly	-12.4826
▁safer	-12.4826
▁sagittarius	-12.4826
▁saleswoman	-12.4826
▁saliva	-12.4826
▁salsa	-12.4826
▁samboucha	-12.4826
▁samples	-12.4826
▁sandra	-12.4826
▁sangria	-12.4826
▁sapiens	-12.4826
▁sarandon	-12.4826
▁satisfied	-12.4826
▁saves	-12.4826
▁savings	-12.4826
▁scalp	-12.4826
▁scans	-12.4826
▁scarf	-12.4826
▁scenario	-12.4826
▁schedules	-12.4826
▁schwartz	-12.4826
▁scones	-12.4826
▁scooch	-12.4826
▁scorcese	-12.4826
▁scored	-12.4826
▁scrabble	-12.4826
▁scratched	-12.4826
▁scratchy	-12.4826
▁screams	-12.4826
▁screening	-12.4826
▁scrub	-12.4826
▁seahorse	-12.4826
▁seatbelt	-12.4826
▁secluded	-12.4826
▁secretary	-12.4826
▁seek	-12.4826
▁seizing	-12.4826
▁selection	-12.4826
▁selling	-12.4826
▁sells	-12.4826
▁selves	-12.4826
▁semi	-12.4826
▁senses	-12.4826
▁separately	-12.4826
▁sequoia	-12.4826
▁ser	-12.4826
▁served	-12.4826
▁sesame	-12.4826
▁setback	-12.4826
▁settings	-12.4826
▁seventy	-12.4826
▁sewer	-12.4826
▁shabby	-12.4826
▁shaft	-12.4826
▁shaken	-12.4826
▁shaky	-12.4826
▁shapes	-12.4826
▁sheep	-12.4826
▁sheryl	-12.4826
▁shhing	-12.4826
▁shine	-12.4826
▁shipped	-12.4826
▁shipping	-12.4826
▁shootin	-12.4826
▁shoulder	-12.4826
▁shovely	-12.4826
▁shushing	-12.4826
▁shutter	-12.4826
▁siadic	-12.4826
▁sid	-12.4826
▁sidecar	-12.4826
▁sided	-12.4826
▁sides	-12.4826
▁sidestep	-12.4826
▁sidney	-12.4826
▁sierra	-12.4826
▁sigma	-12.4826
▁silent	-12.4826
▁silvia	-12.4826
▁singer	-12.4826
▁sissy	-12.4826
▁sixes	-12.4826
▁sizes	-12.4826
▁skip	-12.4826
▁skipped	-12.4826
▁skylight	-12.4826
▁slack	-12.4826
▁slash	-12.4826
▁slave	-12.4826
▁slaw	-12.4826
▁sleazy	-12.4826
▁sleeper	-12.4826
▁sleepers	-12.4826
▁sleigh	-12.4826
▁sliced	-12.4826
▁slide	-12.4826
▁sliding	-12.4826
▁slight	-12.4826
▁slightly	-12.4826
▁sloppy	-12.4826
▁slowed	-12.4826
▁slower	-12.4826
▁slumber	-12.4826
▁smartest	-12.4826
▁smashed	-12.4826
▁smelling	-12.4826
▁smokes	-12.4826
▁sneaking	-12.4826
▁sneeze	-12.4826
▁sneezers	-12.4826
▁snippy	-12.4826
▁snooze	-12.4826
▁snoozing	-12.4826
▁soaking	-12.4826
▁soldier	-12.4826
▁solution	-12.4826
▁solutions	-12.4826
▁somethin	-12.4826
▁sonic	-12.4826
▁sonogram	-12.4826
▁soothing	-12.4826
▁sore	-12.4826
▁sores	-12.4826
▁sorts	-12.4826
▁soul	-12.4826
▁souvenirs	-12.4826
▁spade	-12.4826
▁spades	-12.4826
▁spark	-12.4826
▁spasm	-12.4826
▁speacial	-12.4826
▁speaks	-12.4826
▁spears	-12.4826
▁specifically	-12.4826
▁spice	-12.4826
▁spicy	-12.4826
▁spilled	-12.4826
▁sponges	-12.4826
▁sponsor	-12.4826
▁spooky	-12.4826
▁spoons	-12.4826
▁sporting	-12.4826
▁sprayed	-12.4826
▁spreading	-12.4826
▁sprinkle	-12.4826
▁spudnik	-12.4826
▁sputnik	-12.4826
▁spy	-12.4826
▁squirrel	-12.4826
▁squishing	-12.4826
▁stabbed	-12.4826
▁stack	-12.4826
▁stall	-12.4826
▁stapler	-12.4826
▁starring	-12.4826
▁station	-12.4826
▁statue	-12.4826
▁status	-12.4826
▁steals	-12.4826
▁steamy	-12.4826
▁steel	-12.4826
▁steer	-12.4826
▁stepping	-12.4826
▁stern	-12.4826
▁stinkin	-12.4826
▁stinky	-12.4826
▁stone	-12.4826
▁stoop	-12.4826
▁straighten	-12.4826
▁straightener	-12.4826
▁stranger	-12.4826
▁strap	-12.4826
▁stream	-12.4826
▁stressed	-12.4826
▁strict	-12.4826
▁stripping	-12.4826
▁struggling	-12.4826
▁stu	-12.4826
▁stub	-12.4826
▁stunning	-12.4826
▁stupidest	-12.4826
▁styrofoam	-12.4826
▁subcategories	-12.4826
▁subcategorized	-12.4826
▁sublet	-12.4826
▁sucky	-12.4826
▁suffered	-12.4826
▁suggested	-12.4826
▁summers	-12.4826
▁sunny	-12.4826
▁sunset	-12.4826
▁supergirl	-12.4826
▁superhero	-12.4826
▁superman	-12.4826
▁superpower	-12.4826
▁supervision	-12.4826
▁supreme	-12.4826
▁surface	-12.4826
▁surgically	-12.4826
▁surprises	-12.4826
▁surrounded	-12.4826
▁survive	-12.4826
▁survivor	-12.4826
▁sushi	-12.4826
▁swamped	-12.4826
▁swearing	-12.4826
▁sweetums	-12.4826
▁sweety	-12.4826
▁swimmers	-12.4826
▁syllable	-12.4826
▁symbolism	-12.4826
▁syphilis	-12.4826
▁tab	-12.4826
▁tac	-12.4826
▁tacks	-12.4826
▁tag's	-12.4826
▁tagged	-12.4826
▁tainted	-12.4826
▁takin	-12.4826
▁talents	-12.4826
▁talker	-12.4826
▁tanned	-12.4826
▁tanning	-12.4826
▁tanya	-12.4826
▁tapes	-12.4826
▁tar	-12.4826
▁tarragon	-12.4826
▁tasting	-12.4826
▁tasty	-12.4826
▁taxi	-12.4826
▁teapot	-12.4826
▁ted	-12.4826
▁temp	-12.4826
▁temper	-12.4826
▁temporary	-12.4826
▁tender	-12.4826
▁tense	-12.4826
▁tepid	-12.4826
▁terms	-12.4826
▁territory	-12.4826
▁thanked	-12.4826
▁thanksgiving's	-12.4826
▁thief	-12.4826
▁thingy	-12.4826
▁thirty's	-12.4826
▁this'll	-12.4826
▁thompson	-12.4826
▁thorough	-12.4826
▁thoughtful	-12.4826
▁threatened	-12.4826
▁threatening	-12.4826
▁thumbs	-12.4826
▁thurman	-12.4826
▁thy	-12.4826
▁tiffany	-12.4826
▁tim	-12.4826
▁timer	-12.4826
▁tinsy	-12.4826
▁tire	-12.4826
▁toasties	-12.4826
▁toiletries	-12.4826
▁tomato	-12.4826
▁tombstone	-12.4826
▁tomorrow's	-12.4826
▁ton	-12.4826
▁tones	-12.4826
▁tonsils	-12.4826
▁tool	-12.4826
▁toothbrush	-12.4826
▁topic	-12.4826
▁toppings	-12.4826
▁tops	-12.4826
▁torture	-12.4826
▁torturing	-12.4826
▁toss	-12.4826
▁touchdowns	-12.4826
▁toughest	-12.4826
▁tov	-12.4826
▁toward	-12.4826
▁tracks	-12.4826
▁tragedy	-12.4826
▁trained	-12.4826
▁trains	-12.4826
▁tranquilizer	-12.4826
▁trap	-12.4826
▁trapp	-12.4826
▁tratt	-12.4826
▁traumatic	-12.4826
▁treated	-12.4826
▁tribbianis	-12.4826
▁tricked	-12.4826
▁triple	-12.4826
▁tripped	-12.4826
▁triscuts	-12.4826
▁troll	-12.4826
▁tron	-12.4826
▁troubles	-12.4826
▁truffle	-12.4826
▁trump	-12.4826
▁tryin	-12.4826
▁tu	-12.4826
▁tucked	-12.4826
▁tummy	-12.4826
▁turkey's	-12.4826
▁turner	-12.4826
▁tuscan	-12.4826
▁twirly	-12.4826
▁twister	-12.4826
▁ude	-12.4826
▁ugliest	-12.4826
▁uhl	-12.4826
▁uhu	-12.4826
▁ultimately	-12.4826
▁uma	-12.4826
▁umhmm	-12.4826
▁unacceptable	-12.4826
▁unbearable	-12.4826
▁unconscious	-12.4826
▁unexpected	-12.4826
▁uniform	-12.4826
▁universal	-12.4826
▁unlike	-12.4826
▁unpacked	-12.4826
▁unpaid	-12.4826
▁unplug	-12.4826
▁unsettling	-12.4826
▁unsuccessful	-12.4826
▁untied	-12.4826
▁upbeat	-12.4826
▁urkel	-12.4826
▁urrrgh	-12.4826
▁usher	-12.4826
▁vail	-12.4826
▁valid	-12.4826
▁valuable	-12.4826
▁vamp	-12.4826
▁variegation	-12.4826
▁varoom	-12.4826
▁vaseline	-12.4826
▁ve've	-12.4826
▁vell	-12.4826
▁vendor	-12.4826
▁verbal	-12.4826
▁veronica	-12.4826
▁verse	-12.4826
▁victor	-12.4826
▁victorian	-12.4826
▁views	-12.4826
▁vila	-12.4826
▁vincent	-12.4826
▁vintage	-12.4826
▁virginia	-12.4826
▁virginity	-12.4826
▁virus	-12.4826
▁vis	-12.4826
▁visited	-12.4826
▁visual	-12.4826
▁viva	-12.4826
▁vogue	-12.4826
▁voices	-12.4826
▁volcanoes	-12.4826
▁volkswagen	-12.4826
▁voluntarily	-12.4826
▁volvo	-12.4826
▁vomiting	-12.4826
▁vork	-12.4826
▁vote	-12.4826
▁vould	-12.4826
▁voulez	-12.4826
▁vs	-12.4826
▁vulnerability	-12.4826
▁vulva	-12.4826
▁waaaay	-12.4826
▁waffle	-12.4826
▁waist	-12.4826
▁waitressing	-12.4826
▁waitwait	-12.4826
▁wakes	-12.4826
▁waking	-12.4826
▁walker	-12.4826
▁warned	-12.4826
▁washing	-12.4826
▁wasted	-12.4826
▁watches	-12.4826
▁waters	-12.4826
▁waxing	-12.4826
▁weapon	-12.4826
▁weasel	-12.4826
▁weave	-12.4826
▁weed	-12.4826
▁weepy	-12.4826
▁weigh	-12.4826
▁welling	-12.4826
▁wethead	-12.4826
▁whaaat	-12.4826
▁wham	-12.4826
▁whatsoever	-12.4826
▁whiney	-12.4826
▁whisper	-12.4826
▁whoaa	-12.4826
▁wicker	-12.4826
▁wienie	-12.4826
▁wierd	-12.4826
▁wig	-12.4826
▁wily	-12.4826
▁winners	-12.4826
▁wintermeyer	-12.4826
▁wiped	-12.4826
▁wiping	-12.4826
▁wisconsin	-12.4826
▁witnesses	-12.4826
▁woah	-12.4826
▁woha	-12.4826
▁woken	-12.4826
▁wolf	-12.4826
▁wonton	-12.4826
▁woods	-12.4826
▁woof	-12.4826
▁wooo	-12.4826
▁woowoo	-12.4826
▁worms	-12.4826
▁worn	-12.4826
▁wraps	-12.4826
▁wrestling	-12.4826
▁wynona	-12.4826
▁yas	-12.4826
▁yearly	-12.4826
▁yogart	-12.4826
▁you.s	-12.4826
▁yuh	-12.4826
▁!he	-13.1757
▁!oh	-13.1757
▁!this	-13.1757
▁'ahh	-13.1757
▁'aloof	-13.1757
▁'annie	-13.1757
▁'anyway	-13.1757
▁'billy	-13.1757
▁'co	-13.1757
▁'cos	-13.1757
▁'could	-13.1757
▁'course	-13.1757
▁'de	-13.1757
▁'doy	-13.1757
▁'dumped	-13.1757
▁'engorged	-13.1757
▁'exactly	-13.1757
▁'forget	-13.1757
▁'fraid	-13.1757
▁'g.stephanopoulos	-13.1757
▁'gee	-13.1757
▁'gone	-13.1757
▁'good	-13.1757
▁'hat	-13.1757
▁'heaving	-13.1757
▁'hello	-13.1757
▁'help	-13.1757
▁'hey	-13.1757
▁'hhiii	-13.1757
▁'how	-13.1757
▁'huge	-13.1757
▁'inspiration	-13.1757
▁'involved	-13.1757
▁'l	-13.1757
▁'let	-13.1757
▁'mah	-13.1757
▁'man	-13.1757
▁'maybe	-13.1757
▁'me	-13.1757
▁'mistress	-13.1757
▁'my	-13.1757
▁'new	-13.1757
▁'nice	-13.1757
▁'niffle	-13.1757
▁'ohh	-13.1757
▁'okay	-13.1757
▁'once	-13.1757
▁'one	-13.1757
▁'ooh	-13.1757
▁'pee	-13.1757
▁'pl	-13.1757
▁'please	-13.1757
▁'poor	-13.1757
▁'pretty	-13.1757
▁'pwease	-13.1757
▁'rachel	-13.1757
▁'reaching	-13.1757
▁'read	-13.1757
▁'right	-13.1757
▁'run	-13.1757
▁'s'barry	-13.1757
▁'s'like	-13.1757
▁'s'no	-13.1757
▁'s'why	-13.1757
▁'self	-13.1757
▁'shall	-13.1757
▁'shmoo	-13.1757
▁'shut	-13.1757
▁'tat	-13.1757
▁'they	-13.1757
▁'this	-13.1757
▁'to	-13.1757
▁'tonight	-13.1757
▁'too	-13.1757
▁'um	-13.1757
▁'watching	-13.1757
▁'were	-13.1757
▁'wh	-13.1757
▁'why	-13.1757
▁'will	-13.1757
▁'woo	-13.1757
▁'yeah	-13.1757
▁.and	-13.1757
▁.gleba	-13.1757
▁.let	-13.1757
▁.oh	-13.1757
▁.so	-13.1757
▁.what	-13.1757
▁1,000,000	-13.1757
▁1,500	-13.1757
▁110	-13.1757
▁1200	-13.1757
▁1250	-13.1757
▁12th	-13.1757
▁1a	-13.1757
▁2,000	-13.1757
▁2020	-13.1757
▁20th	-13.1757
▁2100	-13.1757
▁2101	-13.1757
▁250	-13.1757
▁25j	-13.1757
▁2nd	-13.1757
▁5,000	-13.1757
▁50's	-13.1757
▁50,000	-13.1757
▁52	-13.1757
▁5am	-13.1757
▁a's	-13.1757
▁aaaaaa	-13.1757
▁aaaaaaaaaaaaaaaaaaaaa	-13.1757
▁aaaaand	-13.1757
▁aaaah	-13.1757
▁aaahhhh	-13.1757
▁aahhuuhhh	-13.1757
▁aaiiyyyeeee	-13.1757
▁aaw	-13.1757
▁abandon	-13.1757
▁abandoner	-13.1757
▁abandoning	-13.1757
▁abby	-13.1757
▁abnormality	-13.1757
▁aboard	-13.1757
▁abridgment	-13.1757
▁abs	-13.1757
▁absence	-13.1757
▁abuse	-13.1757
▁academic	-13.1757
▁academics	-13.1757
▁acceptance	-13.1757
▁accessible	-13.1757
▁accomplish	-13.1757
▁accountants	-13.1757
▁accu	-13.1757
▁accuracy	-13.1757
▁accused	-13.1757
▁aches	-13.1757
▁achieve	-13.1757
▁achieved	-13.1757
▁achieving	-13.1757
▁acidofolus	-13.1757
▁acknowledge	-13.1757
▁acknowledged	-13.1757
▁actresses	-13.1757
▁acts	-13.1757
▁actuary	-13.1757
▁add	-13.1757
▁addicted	-13.1757
▁additional	-13.1757
▁adjoining	-13.1757
▁admired	-13.1757
▁admits	-13.1757
▁admitted	-13.1757
▁admitting	-13.1757
▁adopts	-13.1757
▁adored	-13.1757
▁adrian	-13.1757
▁adultery	-13.1757
▁advance	-13.1757
▁advanced	-13.1757
▁advances	-13.1757
▁adviser	-13.1757
▁aerobics	-13.1757
▁aff	-13.1757
▁affairs	-13.1757
▁affirmative	-13.1757
▁affordable	-13.1757
▁afr	-13.1757
▁afterward	-13.1757
▁afterwards	-13.1757
▁agamemnon	-13.1757
▁agencies	-13.1757
▁agent's	-13.1757
▁ages	-13.1757
▁aggressive	-13.1757
▁agressive	-13.1757
▁aha	-13.1757
▁ahaha	-13.1757
▁ahahaaa	-13.1757
▁aheh	-13.1757
▁ahhhhhh	-13.1757
▁ahhhhhhhh	-13.1757
▁ahhhhhhhhhh	-13.1757
▁ahhhhhhhhhhhh	-13.1757
▁ahhhhhhhhhhhhhh	-13.1757
▁ahoy	-13.1757
▁aides	-13.1757
▁aired	-13.1757
▁airlines	-13.1757
▁ais	-13.1757
▁ake	-13.1757
▁albeit	-13.1757
▁alcoholic	-13.1757
▁alda	-13.1757
▁alec	-13.1757
▁algernon	-13.1757
▁algonquin	-13.1757
▁alice's	-13.1757
▁alignment	-13.1757
▁alimony	-13.1757
▁allen	-13.1757
▁allison	-13.1757
▁allll	-13.1757
▁allo	-13.1757
▁allways	-13.1757
▁ally	-13.1757
▁alongside	-13.1757
▁alp	-13.1757
▁alphabetical	-13.1757
▁alphabetically	-13.1757
▁alphabetized	-13.1757
▁alri	-13.1757
▁alseep	-13.1757
▁alter	-13.1757
▁alternate	-13.1757
▁altogether	-13.1757
▁aluminum	-13.1757
▁alumni	-13.1757
▁alverez	-13.1757
▁alvin	-13.1757
▁amanda's	-13.1757
▁amateur	-13.1757
▁amazes	-13.1757
▁ambercrombie	-13.1757
▁ambiance	-13.1757
▁ambulance	-13.1757
▁ambush	-13.1757
▁amenities	-13.1757
▁americans	-13.1757
▁ami	-13.1757
▁ammunition	-13.1757
▁amnesia	-13.1757
▁amphibians	-13.1757
▁amsterdam	-13.1757
▁amy's	-13.1757
▁anal	-13.1757
▁analytical	-13.1757
▁ancestors	-13.1757
▁andes	-13.1757
▁andrew	-13.1757
▁andy	-13.1757
▁andybody	-13.1757
▁anecdotes	-13.1757
▁angeles	-13.1757
▁angelina	-13.1757
▁angels	-13.1757
▁angered	-13.1757
▁angus	-13.1757
▁ani	-13.1757
▁anis	-13.1757
▁aniston	-13.1757
▁anita	-13.1757
▁anniversaries	-13.1757
▁announcer	-13.1757
▁announcing	-13.1757
▁annoys	-13.1757
▁annulments	-13.1757
▁ansel	-13.1757
▁ant	-13.1757
▁antenna	-13.1757
▁antennae	-13.1757
▁anthropologically	-13.1757
▁anticipated	-13.1757
▁anticipation	-13.1757
▁antiques	-13.1757
▁antiquey	-13.1757
▁ants	-13.1757
▁antsy	-13.1757
▁anxieties	-13.1757
▁anxious	-13.1757
▁anyhoo	-13.1757
▁anymorrrrre	-13.1757
▁anything's	-13.1757
▁apartment's	-13.1757
▁apes	-13.1757
▁apocalypse	-13.1757
▁apologise	-13.1757
▁apologizes	-13.1757
▁apoplectic	-13.1757
▁appalachia	-13.1757
▁appalled	-13.1757
▁apparatus	-13.1757
▁apparent	-13.1757
▁appeal	-13.1757
▁appealing	-13.1757
▁appearance	-13.1757
▁appetisers	-13.1757
▁appetizers	-13.1757
▁applaud	-13.1757
▁applause	-13.1757
▁applied	-13.1757
▁applies	-13.1757
▁appraise	-13.1757
▁appreciates	-13.1757
▁appreciation	-13.1757
▁approach	-13.1757
▁approve	-13.1757
▁apron	-13.1757
▁aquarium	-13.1757
▁arabian	-13.1757
▁arby	-13.1757
▁arch	-13.1757
▁archeologist	-13.1757
▁archery	-13.1757
▁archie	-13.1757
▁arg	-13.1757
▁argentinaaaa	-13.1757
▁argentinasaurus	-13.1757
▁arghh	-13.1757
▁arghhhhhh	-13.1757
▁argument's	-13.1757
▁armadillos	-13.1757
▁armenian	-13.1757
▁arnold	-13.1757
▁aromatherapy	-13.1757
▁aroused	-13.1757
▁arousing	-13.1757
▁arrangement	-13.1757
▁arranging	-13.1757
▁arrghh	-13.1757
▁arrive	-13.1757
▁arrives	-13.1757
▁arrogance	-13.1757
▁arrow	-13.1757
▁arrrghh	-13.1757
▁artelle	-13.1757
▁arthopods	-13.1757
▁arthritic	-13.1757
▁articles	-13.1757
▁artifact	-13.1757
▁artificial	-13.1757
▁artistic	-13.1757
▁artwork	-13.1757
▁ary	-13.1757
▁ash	-13.1757
▁ashtray	-13.1757
▁aspects	-13.1757
▁aspirin	-13.1757
▁asses	-13.1757
▁assistent	-13.1757
▁assorted	-13.1757
▁astaire	-13.1757
▁astounding	-13.1757
▁astronaut	-13.1757
▁astronomer	-13.1757
▁athens	-13.1757
▁atkins	-13.1757
▁atrium	-13.1757
▁attach	-13.1757
▁attachments	-13.1757
▁attacking	-13.1757
▁attacks	-13.1757
▁attempt	-13.1757
▁attend	-13.1757
▁attendant	-13.1757
▁attract	-13.1757
▁auditioned	-13.1757
▁auditorium	-13.1757
▁august	-13.1757
▁aunts	-13.1757
▁australian	-13.1757
▁authentic	-13.1757
▁author	-13.1757
▁author's	-13.1757
▁authority	-13.1757
▁autographs	-13.1757
▁await	-13.1757
▁awch	-13.1757
▁awwwahuh	-13.1757
▁axe	-13.1757
▁aye	-13.1757
▁b'because	-13.1757
▁b.f.f	-13.1757
▁babbling	-13.1757
▁babes	-13.1757
▁baby'd	-13.1757
▁babysat	-13.1757
▁babysit	-13.1757
▁babysitter	-13.1757
▁babysitters	-13.1757
▁background	-13.1757
▁backs	-13.1757
▁bactine	-13.1757
▁bada	-13.1757
▁badminton	-13.1757
▁baggy	-13.1757
▁bagina	-13.1757
▁baguette	-13.1757
▁bahama	-13.1757
▁bait	-13.1757
▁baking	-13.1757
▁balanced	-13.1757
▁balded	-13.1757
▁baldwin	-13.1757
▁bale	-13.1757
▁ballad	-13.1757
▁balled	-13.1757
▁ballerina	-13.1757
▁balloons	-13.1757
▁ballroom	-13.1757
▁bamboo	-13.1757
▁ban	-13.1757
▁banging	-13.1757
▁bangs	-13.1757
▁banister	-13.1757
▁baptism	-13.1757
▁barbed	-13.1757
▁barber	-13.1757
▁barbershop	-13.1757
▁barbi's	-13.1757
▁bare	-13.1757
▁bargain	-13.1757
▁barks	-13.1757
▁barley	-13.1757
▁barmifsaed	-13.1757
▁barney's	-13.1757
▁barr	-13.1757
▁barry's	-13.1757
▁bart	-13.1757
▁baseboard	-13.1757
▁basing	-13.1757
▁basis	-13.1757
▁bask	-13.1757
▁baskets	-13.1757
▁baskin	-13.1757
▁bass	-13.1757
▁bast	-13.1757
▁bastards	-13.1757
▁baste	-13.1757
▁bathe	-13.1757
▁bathed	-13.1757
▁bathroom's	-13.1757
▁batmobile	-13.1757
▁baton	-13.1757
▁batteries	-13.1757
▁batting	-13.1757
▁battles	-13.1757
▁battling	-13.1757
▁bazida	-13.1757
▁beacon	-13.1757
▁beanbag	-13.1757
▁beanstalk	-13.1757
▁bearer	-13.1757
▁bearing	-13.1757
▁bearings	-13.1757
▁bearnaise	-13.1757
▁beating	-13.1757
▁beavers	-13.1757
▁bec	-13.1757
▁beck	-13.1757
▁becky	-13.1757
▁becuase	-13.1757
▁becuz	-13.1757
▁bedankt	-13.1757
▁bedroommmm	-13.1757
▁bedrooms	-13.1757
▁bedside	-13.1757
▁bedspread	-13.1757
▁bedsprings	-13.1757
▁beed	-13.1757
▁beehive	-13.1757
▁beep	-13.1757
▁beetles	-13.1757
▁befall	-13.1757
▁begged	-13.1757
▁beggin	-13.1757
▁beginner	-13.1757
▁beginners	-13.1757
▁begun	-13.1757
▁behalfin	-13.1757
▁behaves	-13.1757
▁behaviour	-13.1757
▁belch	-13.1757
▁belgian	-13.1757
▁belgium	-13.1757
▁believing	-13.1757
▁bellied	-13.1757
▁bellyaching	-13.1757
▁belt's	-13.1757
▁bench	-13.1757
▁bendall's	-13.1757
▁bends	-13.1757
▁bendy	-13.1757
▁benefitty	-13.1757
▁benign	-13.1757
▁benji	-13.1757
▁benny	-13.1757
▁bere	-13.1757
▁bergman	-13.1757
▁bernard	-13.1757
▁betray	-13.1757
▁betrayed	-13.1757
▁betroughed	-13.1757
▁betsy	-13.1757
▁betsy's	-13.1757
▁bett	-13.1757
▁beverage	-13.1757
▁beyonce	-13.1757
▁bhan	-13.1757
▁bhannn	-13.1757
▁bicentennial	-13.1757
▁biceps	-13.1757
▁bidding	-13.1757
▁bien	-13.1757
▁bifocals	-13.1757
▁bigfoot	-13.1757
▁biggie	-13.1757
▁bigot	-13.1757
▁billing	-13.1757
▁billion	-13.1757
▁bind	-13.1757
▁binder	-13.1757
▁bionic	-13.1757
▁bird's	-13.1757
▁birdcage	-13.1757
▁birdcalls	-13.1757
▁birthday's	-13.1757
▁births	-13.1757
▁bishop	-13.1757
▁bistero	-13.1757
▁bites	-13.1757
▁biting	-13.1757
▁bits	-13.1757
▁bizarre	-13.1757
▁bizarro	-13.1757
▁blaaaaaah	-13.1757
▁blab	-13.1757
▁blacked	-13.1757
▁blackened	-13.1757
▁blaine	-13.1757
▁blamed	-13.1757
▁blankets	-13.1757
▁blanks	-13.1757
▁blargah	-13.1757
▁blargh	-13.1757
▁blarrglarrghh	-13.1757
▁blasts	-13.1757
▁blazed	-13.1757
▁ble	-13.1757
▁bleecker	-13.1757
▁bless	-13.1757
▁blessed	-13.1757
▁blessing	-13.1757
▁blindness	-13.1757
▁blinky	-13.1757
▁blistered	-13.1757
▁blizzard	-13.1757
▁bloated	-13.1757
▁bloaty	-13.1757
▁blobbies	-13.1757
▁blocked	-13.1757
▁blockin	-13.1757
▁bloemen	-13.1757
▁bloodbath	-13.1757
▁blooded	-13.1757
▁bloomers	-13.1757
▁bloomingdales	-13.1757
▁blower	-13.1757
▁blowout	-13.1757
▁bluebells	-13.1757
▁blueberries	-13.1757
▁blur	-13.1757
▁blurry	-13.1757
▁blurtin	-13.1757
▁blushed	-13.1757
▁boarding	-13.1757
▁boatload	-13.1757
▁boats	-13.1757
▁bobcats	-13.1757
▁bodes	-13.1757
▁body's	-13.1757
▁bogota	-13.1757
▁boiler	-13.1757
▁boils	-13.1757
▁bold	-13.1757
▁bolero	-13.1757
▁bombay	-13.1757
▁bombs	-13.1757
▁bondage	-13.1757
▁bonds	-13.1757
▁bonking	-13.1757
▁boobie	-13.1757
▁boogie	-13.1757
▁bookbinder	-13.1757
▁bookend	-13.1757
▁bookstores	-13.1757
▁booo	-13.1757
▁boot	-13.1757
▁booze	-13.1757
▁bopping	-13.1757
▁bordeaux	-13.1757
▁bore	-13.1757
▁boredddd	-13.1757
▁boree	-13.1757
▁boscodictiasaur	-13.1757
▁botanists	-13.1757
▁botched	-13.1757
▁botchy	-13.1757
▁bottoms	-13.1757
▁boundaries	-13.1757
▁bowe	-13.1757
▁boxy	-13.1757
▁boy's	-13.1757
▁boyfriend's	-13.1757
▁boyish	-13.1757
▁boyyyyssss	-13.1757
▁brace	-13.1757
▁bracket	-13.1757
▁brady	-13.1757
▁bragging	-13.1757
▁brazen	-13.1757
▁breadsticks	-13.1757
▁breakfasts	-13.1757
▁breakfront	-13.1757
▁breakthroughs	-13.1757
▁breathtaking	-13.1757
▁breed	-13.1757
▁breeze	-13.1757
▁brent	-13.1757
▁brian's	-13.1757
▁bribe	-13.1757
▁bribery	-13.1757
▁bricks	-13.1757
▁bridemaids	-13.1757
▁brides	-13.1757
▁bridesmaids	-13.1757
▁bridges	-13.1757
▁briefly	-13.1757
▁briefs	-13.1757
▁brighten	-13.1757
▁brinkley	-13.1757
▁brisk	-13.1757
▁bristles	-13.1757
▁britain	-13.1757
▁broadcast	-13.1757
▁broadcasting	-13.1757
▁broads	-13.1757
▁broccoli	-13.1757
▁broiling	-13.1757
▁brokaw	-13.1757
▁broom	-13.1757
▁bros	-13.1757
▁broth	-13.1757
▁brotherpucker	-13.1757
▁browned	-13.1757
▁brownish	-13.1757
▁brownshirt	-13.1757
▁brrrrrrr	-13.1757
▁brunette	-13.1757
▁brunt	-13.1757
▁brushed	-13.1757
▁brussel	-13.1757
▁buash	-13.1757
▁bub	-13.1757
▁bubba	-13.1757
▁bubble's	-13.1757
▁buckingham	-13.1757
▁bucko	-13.1757
▁buckwheat	-13.1757
▁budolph	-13.1757
▁buffay's	-13.1757
▁buffo	-13.1757
▁bugged	-13.1757
▁buh	-13.1757
▁buick	-13.1757
▁bulging	-13.1757
▁bulldozer	-13.1757
▁bullets	-13.1757
▁bullies	-13.1757
▁bullwinkle	-13.1757
▁bumb	-13.1757
▁bumblebees	-13.1757
▁bummerrr	-13.1757
▁bumpy	-13.1757
▁bundled	-13.1757
▁bungy	-13.1757
▁bunk	-13.1757
▁bunnied	-13.1757
▁buns	-13.1757
▁bureau	-13.1757
▁burkart	-13.1757
▁burp	-13.1757
▁burring	-13.1757
▁burrito	-13.1757
▁burritos	-13.1757
▁burrrrr	-13.1757
▁bursting	-13.1757
▁buses	-13.1757
▁bush	-13.1757
▁bushy	-13.1757
▁businesses	-13.1757
▁businesswoman	-13.1757
▁buster	-13.1757
▁butch	-13.1757
▁buts	-13.1757
▁butt's	-13.1757
▁butterfly	-13.1757
▁butternut	-13.1757
▁butterwords	-13.1757
▁buttery	-13.1757
▁buttock	-13.1757
▁buzzed	-13.1757
▁buzzing?hey	-13.1757
▁bwah	-13.1757
▁bzzzz	-13.1757
▁c.i.a	-13.1757
▁caaaaan	-13.1757
▁caaar	-13.1757
▁caaauuuse	-13.1757
▁cab's	-13.1757
▁cabbage	-13.1757
▁cabinets	-13.1757
▁caesar's	-13.1757
▁caff	-13.1757
▁cairo	-13.1757
▁cake's	-13.1757
▁cakey	-13.1757
▁cal	-13.1757
▁calcium	-13.1757
▁calculator	-13.1757
▁calcutta	-13.1757
▁calendars	-13.1757
▁californicus	-13.1757
▁call's	-13.1757
▁callbacks	-13.1757
▁calms	-13.1757
▁calves	-13.1757
▁camomile	-13.1757
▁campaign	-13.1757
▁campbell	-13.1757
▁camper	-13.1757
▁camping	-13.1757
▁canadians	-13.1757
▁canceling	-13.1757
▁cancellation	-13.1757
▁cancelling	-13.1757
▁candels	-13.1757
▁candidate	-13.1757
▁candids	-13.1757
▁candies	-13.1757
▁candle's	-13.1757
▁candlesticks	-13.1757
▁cane	-13.1757
▁canidates	-13.1757
▁canna	-13.1757
▁cantaloupe	-13.1757
▁cap	-13.1757
▁capacity	-13.1757
▁capade	-13.1757
▁capades	-13.1757
▁caplin	-13.1757
▁cappuccino	-13.1757
▁capri	-13.1757
▁capsule	-13.1757
▁capture	-13.1757
▁captured	-13.1757
▁capuchian	-13.1757
▁carat	-13.1757
▁carcasses	-13.1757
▁cardboard	-13.1757
▁careers	-13.1757
▁careless	-13.1757
▁caress	-13.1757
▁caretaker	-13.1757
▁carin	-13.1757
▁carlos	-13.1757
▁carmen	-13.1757
▁carnuba	-13.1757
▁caro	-13.1757
▁carrer	-13.1757
▁carrot	-13.1757
▁carrots	-13.1757
▁carter	-13.1757
▁carve	-13.1757
▁carved	-13.1757
▁casket	-13.1757
▁caster	-13.1757
▁catastrophic	-13.1757
▁categorize	-13.1757
▁cater	-13.1757
▁catergories	-13.1757
▁caterpillars	-13.1757
▁cates	-13.1757
▁cathy	-13.1757
▁cattle	-13.1757
▁caved	-13.1757
▁celantro	-13.1757
▁celebrated	-13.1757
▁cellophane	-13.1757
▁celtics	-13.1757
▁centazoic	-13.1757
▁centered	-13.1757
▁cer	-13.1757
▁ceramic	-13.1757
▁cereal	-13.1757
▁cereals	-13.1757
▁cerebral	-13.1757
▁certificate	-13.1757
▁chachi	-13.1757
▁chad	-13.1757
▁chainsaw	-13.1757
▁chair's	-13.1757
▁chanberries	-13.1757
▁chanel	-13.1757
▁chang	-13.1757
▁channie	-13.1757
▁chant	-13.1757
▁chap	-13.1757
▁chappy's	-13.1757
▁chapstick	-13.1757
▁characturist	-13.1757
▁charisma	-13.1757
▁charity's	-13.1757
▁charlie's	-13.1757
▁charms	-13.1757
▁chart	-13.1757
▁chases	-13.1757
▁cheaters	-13.1757
▁checks	-13.1757
▁cheddar	-13.1757
▁cheech	-13.1757
▁cheeky	-13.1757
▁cheerie	-13.1757
▁cheeseburger	-13.1757
▁cheesy	-13.1757
▁cheffing	-13.1757
▁cheques	-13.1757
▁cherries	-13.1757
▁chessh	-13.1757
▁chesters	-13.1757
▁chichas	-13.1757
▁chick's	-13.1757
▁chickas	-13.1757
▁chickeeeen	-13.1757
▁chicken's	-13.1757
▁chickens	-13.1757
▁child's	-13.1757
▁childbirth	-13.1757
▁childlike	-13.1757
▁children's	-13.1757
▁chilean	-13.1757
▁chili	-13.1757
▁chill	-13.1757
▁chilling	-13.1757
▁chilly	-13.1757
▁chiming	-13.1757
▁chimps	-13.1757
▁chino	-13.1757
▁chit	-13.1757
▁chocolatey	-13.1757
▁chop	-13.1757
▁chopper	-13.1757
▁chord	-13.1757
▁chorus	-13.1757
▁choruses	-13.1757
▁chou	-13.1757
▁christen	-13.1757
▁christening	-13.1757
▁christie	-13.1757
▁christine	-13.1757
▁christmassy	-13.1757
▁christmastime	-13.1757
▁chrysler	-13.1757
▁chuckie	-13.1757
▁churo	-13.1757
▁cigs	-13.1757
▁cinamon	-13.1757
▁cincinnati	-13.1757
▁cinemax	-13.1757
▁circled	-13.1757
▁circley	-13.1757
▁circuits	-13.1757
▁civil	-13.1757
▁civilization	-13.1757
▁ck	-13.1757
▁clamed	-13.1757
▁clap	-13.1757
▁claps	-13.1757
▁clarify	-13.1757
▁clasp	-13.1757
▁classifieds	-13.1757
▁classroom	-13.1757
▁claus	-13.1757
▁clawed	-13.1757
▁clawing	-13.1757
▁clay	-13.1757
▁clearer	-13.1757
▁cleavage	-13.1757
▁cleopatra	-13.1757
▁cleric	-13.1757
▁clich	-13.1757
▁clicking	-13.1757
▁clifford	-13.1757
▁climbing	-13.1757
▁climbs	-13.1757
▁cling	-13.1757
▁clint	-13.1757
▁clinton	-13.1757
▁clinton's	-13.1757
▁clip	-13.1757
▁clipped	-13.1757
▁cloak	-13.1757
▁clocked	-13.1757
▁clogged	-13.1757
▁cloning	-13.1757
▁closest	-13.1757
▁closure	-13.1757
▁cloth	-13.1757
▁clothing	-13.1757
▁cloud	-13.1757
▁cloves	-13.1757
▁clow	-13.1757
▁clubbing	-13.1757
▁clumsy	-13.1757
▁clunked	-13.1757
▁clunky	-13.1757
▁clusters	-13.1757
▁coached	-13.1757
▁coaster	-13.1757
▁coconut	-13.1757
▁coconutty	-13.1757
▁coffeehouses	-13.1757
▁cog	-13.1757
▁cola	-13.1757
▁colbert	-13.1757
▁colder	-13.1757
▁collapsed	-13.1757
▁colleagues	-13.1757
▁collective	-13.1757
▁collegue	-13.1757
▁collins	-13.1757
▁colon	-13.1757
▁colony	-13.1757
▁colorful	-13.1757
▁coloring	-13.1757
▁colour	-13.1757
▁com	-13.1757
▁comb	-13.1757
▁combine	-13.1757
▁combo	-13.1757
▁comets	-13.1757
▁comma	-13.1757
▁command	-13.1757
▁commanding	-13.1757
▁commencing	-13.1757
▁committee	-13.1757
▁commodore	-13.1757
▁communicate	-13.1757
▁communicating	-13.1757
▁communism	-13.1757
▁compact	-13.1757
▁compares	-13.1757
▁comparing	-13.1757
▁compartment	-13.1757
▁compentent	-13.1757
▁competing	-13.1757
▁competitor	-13.1757
▁complaint	-13.1757
▁complementary	-13.1757
▁complex	-13.1757
▁complimentary	-13.1757
▁complimenting	-13.1757
▁compliments	-13.1757
▁compound	-13.1757
▁comprehending	-13.1757
▁comprehends	-13.1757
▁comprehensive	-13.1757
▁compromises	-13.1757
▁compulsion	-13.1757
▁compulsively	-13.1757
▁compuper	-13.1757
▁computerized	-13.1757
▁concealed	-13.1757
▁concentrating	-13.1757
▁concerns	-13.1757
▁concert's	-13.1757
▁concerts	-13.1757
▁concession	-13.1757
▁conclusions	-13.1757
▁conclusively	-13.1757
▁condensation	-13.1757
▁condensed	-13.1757
▁condition	-13.1757
▁conditioner	-13.1757
▁conditioners	-13.1757
▁conduct	-13.1757
▁conducting	-13.1757
▁cone	-13.1757
▁conferences	-13.1757
▁confess	-13.1757
▁confidant	-13.1757
▁confidence	-13.1757
▁confit	-13.1757
▁confront	-13.1757
▁confrontation	-13.1757
▁confronted	-13.1757
▁confusing	-13.1757
▁confusion	-13.1757
▁congeniality	-13.1757
▁conglomerate	-13.1757
▁congratu	-13.1757
▁congratulate	-13.1757
▁congratulation	-13.1757
▁congratulatioooons	-13.1757
▁congress	-13.1757
▁conjecture	-13.1757
▁connections	-13.1757
▁connor	-13.1757
▁consciously	-13.1757
▁consequences	-13.1757
▁console	-13.1757
▁consoled	-13.1757
▁consternation	-13.1757
▁constructed	-13.1757
▁constructive	-13.1757
▁consuming	-13.1757
▁contests	-13.1757
▁continents	-13.1757
▁continuum	-13.1757
▁contraceptives	-13.1757
▁contracting	-13.1757
▁contractions	-13.1757
▁conveniently	-13.1757
▁conventional	-13.1757
▁conversational	-13.1757
▁conversationalist	-13.1757
▁conversations	-13.1757
▁converstation	-13.1757
▁convertible	-13.1757
▁convey	-13.1757
▁coodies	-13.1757
▁cooling	-13.1757
▁cooper	-13.1757
▁cooperate	-13.1757
▁cooperation	-13.1757
▁cooperative	-13.1757
▁copied	-13.1757
▁coping	-13.1757
▁copperfield	-13.1757
▁copywriter	-13.1757
▁core	-13.1757
▁corey	-13.1757
▁corino	-13.1757
▁corneas	-13.1757
▁corned	-13.1757
▁corny	-13.1757
▁corona	-13.1757
▁corporation	-13.1757
▁corps	-13.1757
▁corralled	-13.1757
▁correcting	-13.1757
▁correspondence	-13.1757
▁corsage	-13.1757
▁cos	-13.1757
▁cotter	-13.1757
▁coucher	-13.1757
▁coughing	-13.1757
▁couldn'ta	-13.1757
▁coup	-13.1757
▁courtesy	-13.1757
▁courtroom	-13.1757
▁courtroom's	-13.1757
▁courtside	-13.1757
▁cousins	-13.1757
▁coutez	-13.1757
▁cow's	-13.1757
▁cowboys	-13.1757
▁cowlicky	-13.1757
▁coworkers	-13.1757
▁cox	-13.1757
▁cpu	-13.1757
▁craaaazy	-13.1757
▁craaazy	-13.1757
▁crabby	-13.1757
▁crabtree	-13.1757
▁crackin	-13.1757
▁cracking	-13.1757
▁cradle	-13.1757
▁crafts	-13.1757
▁craftsmen	-13.1757
▁cranking	-13.1757
▁cravings	-13.1757
▁crawford	-13.1757
▁crawler	-13.1757
▁crawling	-13.1757
▁creamier	-13.1757
▁creamiest	-13.1757
▁creamy	-13.1757
▁crease	-13.1757
▁created	-13.1757
▁creative	-13.1757
▁creator	-13.1757
▁creatures	-13.1757
▁creepiest	-13.1757
▁creepin	-13.1757
▁cremate	-13.1757
▁cremated	-13.1757
▁cremating	-13.1757
▁cremation	-13.1757
▁crenna	-13.1757
▁crickets	-13.1757
▁criminal	-13.1757
▁crippled	-13.1757
▁crisis	-13.1757
▁crisp	-13.1757
▁crispy	-13.1757
▁critic	-13.1757
▁critical	-13.1757
▁critics	-13.1757
▁crocodile	-13.1757
▁croissant	-13.1757
▁crossbow	-13.1757
▁crosswords	-13.1757
▁crouching	-13.1757
▁croup	-13.1757
▁crown	-13.1757
▁crowning	-13.1757
▁crud	-13.1757
▁crudites	-13.1757
▁cruising	-13.1757
▁cruller	-13.1757
▁crumb	-13.1757
▁crumbly	-13.1757
▁crumpled	-13.1757
▁crunchy	-13.1757
▁crushes	-13.1757
▁cryin	-13.1757
▁ct	-13.1757
▁cub	-13.1757
▁cubby	-13.1757
▁cubed	-13.1757
▁cuckoo	-13.1757
▁cuddle	-13.1757
▁cue	-13.1757
▁cufflinks	-13.1757
▁cult	-13.1757
▁cunningham	-13.1757
▁cupboard	-13.1757
▁cupert	-13.1757
▁curator	-13.1757
▁curin	-13.1757
▁curiously	-13.1757
▁current	-13.1757
▁currently	-13.1757
▁curry	-13.1757
▁cursory	-13.1757
▁curtain	-13.1757
▁curtains	-13.1757
▁customers	-13.1757
▁customs	-13.1757
▁cut!you	-13.1757
▁cutest	-13.1757
▁cutout	-13.1757
▁d'y'see	-13.1757
▁daa	-13.1757
▁daaah	-13.1757
▁dab	-13.1757
▁daddy's	-13.1757
▁dahhhhh	-13.1757
▁daily	-13.1757
▁dainty	-13.1757
▁daiquiris	-13.1757
▁daisies	-13.1757
▁dakotas	-13.1757
▁dally	-13.1757
▁damaged	-13.1757
▁damaging	-13.1757
▁damning	-13.1757
▁damp	-13.1757
▁dancin	-13.1757
▁dancy	-13.1757
▁danes	-13.1757
▁dangerously	-13.1757
▁danglers	-13.1757
▁dared	-13.1757
▁darker	-13.1757
▁darn	-13.1757
▁darwin	-13.1757
▁dash	-13.1757
▁dashing	-13.1757
▁datable	-13.1757
▁daughters	-13.1757
▁david's	-13.1757
▁davy	-13.1757
▁dawn	-13.1757
▁dawson	-13.1757
▁day's	-13.1757
▁daytona	-13.1757
▁deadened	-13.1757
▁deadline	-13.1757
▁deadlines	-13.1757
▁deadly	-13.1757
▁dealer's	-13.1757
▁dealers	-13.1757
▁dealie	-13.1757
▁death.well	-13.1757
▁deathbed	-13.1757
▁deathbeds	-13.1757
▁deaths	-13.1757
▁debating	-13.1757
▁debra	-13.1757
▁deceptively	-13.1757
▁decibel	-13.1757
▁decimal	-13.1757
▁decorated	-13.1757
▁decorator	-13.1757
▁decorum	-13.1757
▁dee	-13.1757
▁deemed	-13.1757
▁deeper	-13.1757
▁defence	-13.1757
▁defended	-13.1757
▁defending	-13.1757
▁defiantly	-13.1757
▁deficit	-13.1757
▁define	-13.1757
▁defined	-13.1757
▁defines	-13.1757
▁defining	-13.1757
▁definitive	-13.1757
▁delay	-13.1757
▁delayed	-13.1757
▁delegating	-13.1757
▁delicacy	-13.1757
▁delight	-13.1757
▁delightful	-13.1757
▁delilah	-13.1757
▁delivering	-13.1757
▁deltas	-13.1757
▁delvecchio	-13.1757
▁delveccio	-13.1757
▁demarco	-13.1757
▁demeaning	-13.1757
▁demonstrate	-13.1757
▁denim	-13.1757
▁denis	-13.1757
▁dented	-13.1757
▁dentists	-13.1757
▁dents	-13.1757
▁denying	-13.1757
▁deodorant	-13.1757
▁depend	-13.1757
▁dependency	-13.1757
▁dependent	-13.1757
▁depli	-13.1757
▁depressants	-13.1757
▁deprive	-13.1757
▁depriving	-13.1757
▁depths	-13.1757
▁describes	-13.1757
▁designers	-13.1757
▁desperately	-13.1757
▁desperation	-13.1757
▁destroys	-13.1757
▁detailed	-13.1757
▁detectors	-13.1757
▁determine	-13.1757
▁determines	-13.1757
▁detour	-13.1757
▁detroit	-13.1757
▁deu	-13.1757
▁development	-13.1757
▁devoid	-13.1757
▁devonian	-13.1757
▁dewey	-13.1757
▁dexter	-13.1757
▁dialects	-13.1757
▁dialed	-13.1757
▁dialer	-13.1757
▁dials	-13.1757
▁diamonds	-13.1757
▁diana	-13.1757
▁diane	-13.1757
▁diapering	-13.1757
▁diarrhea	-13.1757
▁diary	-13.1757
▁dice	-13.1757
▁dickens	-13.1757
▁dictator	-13.1757
▁diets	-13.1757
▁dieu	-13.1757
▁diferent	-13.1757
▁differences	-13.1757
▁different.you	-13.1757
▁dilatedamundo	-13.1757
▁dilemma	-13.1757
▁dillhole	-13.1757
▁dillillio	-13.1757
▁dimmer	-13.1757
▁dinah	-13.1757
▁dingus	-13.1757
▁diplomat	-13.1757
▁diplomatic	-13.1757
▁dire	-13.1757
▁disability	-13.1757
▁disabled	-13.1757
▁disagreement	-13.1757
▁disappear	-13.1757
▁disappeared	-13.1757
▁disappoint	-13.1757
▁disarray	-13.1757
▁disasters	-13.1757
▁disbelief	-13.1757
▁discipline	-13.1757
▁disciplining	-13.1757
▁discliplinarin	-13.1757
▁disclosure	-13.1757
▁disco	-13.1757
▁discover	-13.1757
▁discredited	-13.1757
▁disgraceful	-13.1757
▁disgusted	-13.1757
▁disgustingtons	-13.1757
▁dishtowel	-13.1757
▁disk	-13.1757
▁dismantle	-13.1757
▁dismissed	-13.1757
▁dispenses	-13.1757
▁disposal	-13.1757
▁disregard	-13.1757
▁disrespect	-13.1757
▁disrespectful	-13.1757
▁disrupts	-13.1757
▁dissolve	-13.1757
▁distant	-13.1757
▁distasteful	-13.1757
▁distillation	-13.1757
▁distinct	-13.1757
▁distinctly	-13.1757
▁distorted	-13.1757
▁distracted	-13.1757
▁distraction	-13.1757
▁distractions	-13.1757
▁distraught	-13.1757
▁disturbing	-13.1757
▁ditto	-13.1757
▁dividing	-13.1757
▁diving	-13.1757
▁dja	-13.1757
▁docile	-13.1757
▁dock	-13.1757
▁doctor's	-13.1757
▁documentary	-13.1757
▁documents	-13.1757
▁dodge	-13.1757
▁dodged	-13.1757
▁dogged	-13.1757
▁doggy	-13.1757
▁dokay	-13.1757
▁dollies	-13.1757
▁dolls	-13.1757
▁dollup	-13.1757
▁dollywood	-13.1757
▁dolphin	-13.1757
▁dome	-13.1757
▁dominance	-13.1757
▁domineering	-13.1757
▁donations	-13.1757
▁donnel	-13.1757
▁donor	-13.1757
▁dons	-13.1757
▁donut	-13.1757
▁doo	-13.1757
▁doobie	-13.1757
▁doof	-13.1757
▁doogie	-13.1757
▁doom	-13.1757
▁doomed	-13.1757
▁doooo	-13.1757
▁doorknobs	-13.1757
▁doorman	-13.1757
▁doption	-13.1757
▁dora	-13.1757
▁doritos	-13.1757
▁dorm	-13.1757
▁dormant	-13.1757
▁dormer	-13.1757
▁dots	-13.1757
▁doubles	-13.1757
▁doubling	-13.1757
▁doubly	-13.1757
▁doubtfire	-13.1757
▁douglas	-13.1757
▁dowdy	-13.1757
▁downer	-13.1757
▁downhill	-13.1757
▁downs	-13.1757
▁doy	-13.1757
▁dozens	-13.1757
▁dracula	-13.1757
▁draft	-13.1757
▁dragons	-13.1757
▁drags	-13.1757
▁drake's	-13.1757
▁drastic	-13.1757
▁drawings	-13.1757
▁dreading	-13.1757
▁dreaming	-13.1757
▁dreamless	-13.1757
▁dreidle	-13.1757
▁dressier	-13.1757
▁dreyfuss	-13.1757
▁drier	-13.1757
▁dries	-13.1757
▁drifted	-13.1757
▁drifter	-13.1757
▁drippy	-13.1757
▁drivers	-13.1757
▁drowned	-13.1757
▁drum	-13.1757
▁drumming	-13.1757
▁drun	-13.1757
▁drycleaners	-13.1757
▁dryers	-13.1757
▁dubbies	-13.1757
▁duchess	-13.1757
▁duck's	-13.1757
▁ducked	-13.1757
▁ducks	-13.1757
▁dudley	-13.1757
▁duet	-13.1757
▁duly	-13.1757
▁dumber	-13.1757
▁dumbest	-13.1757
▁dummie	-13.1757
▁dummies	-13.1757
▁dummy	-13.1757
▁dusk	-13.1757
▁dust	-13.1757
▁dusty	-13.1757
▁duuuur	-13.1757
▁duval	-13.1757
▁dwarfed	-13.1757
▁dwarves	-13.1757
▁eager	-13.1757
▁earful	-13.1757
▁earl	-13.1757
▁earliest	-13.1757
▁earlobes	-13.1757
▁earmarked	-13.1757
▁earner	-13.1757
▁earns	-13.1757
▁east	-13.1757
▁easton	-13.1757
▁eastwood	-13.1757
▁eatin	-13.1757
▁eavesdrop	-13.1757
▁ebe	-13.1757
▁ec	-13.1757
▁ecclectic	-13.1757
▁eclipse	-13.1757
▁economics	-13.1757
▁economy	-13.1757
▁ectomy	-13.1757
▁eddie	-13.1757
▁ee	-13.1757
▁eeee	-13.1757
▁eeeee	-13.1757
▁eek	-13.1757
▁eesh	-13.1757
▁eew	-13.1757
▁eez	-13.1757
▁effect	-13.1757
▁effects	-13.1757
▁effervesce	-13.1757
▁eggert	-13.1757
▁eggplant	-13.1757
▁eggshell	-13.1757
▁ego	-13.1757
▁egyptians	-13.1757
▁eighteenth	-13.1757
▁eighty	-13.1757
▁einstein	-13.1757
▁elaborate	-13.1757
▁elastic	-13.1757
▁elders	-13.1757
▁electrical	-13.1757
▁electrician	-13.1757
▁electrifying	-13.1757
▁electrocuted	-13.1757
▁electronically	-13.1757
▁element	-13.1757
▁elephants	-13.1757
▁eliminated	-13.1757
▁eliminates	-13.1757
▁elizabeth's	-13.1757
▁ellen	-13.1757
▁ello	-13.1757
▁elmo	-13.1757
▁else'll	-13.1757
▁email	-13.1757
▁embargo	-13.1757
▁embark	-13.1757
▁embrace	-13.1757
▁embracing	-13.1757
▁emil	-13.1757
▁emit	-13.1757
▁emmm	-13.1757
▁emmy	-13.1757
▁emory	-13.1757
▁emory's	-13.1757
▁emotion	-13.1757
▁emphatic	-13.1757
▁employee	-13.1757
▁emptied	-13.1757
▁emptier	-13.1757
▁emptive	-13.1757
▁enchant	-13.1757
▁enchilada	-13.1757
▁encourage	-13.1757
▁endearing	-13.1757
▁endearment	-13.1757
▁endeavours	-13.1757
▁endless	-13.1757
▁enema	-13.1757
▁enemas	-13.1757
▁enemy	-13.1757
▁energetic	-13.1757
▁energized	-13.1757
▁enforcer	-13.1757
▁engage	-13.1757
▁engineering	-13.1757
▁engines	-13.1757
▁enhanced	-13.1757
▁enjoyable	-13.1757
▁ennnh	-13.1757
▁enriched	-13.1757
▁enron	-13.1757
▁ensemble	-13.1757
▁enterprise	-13.1757
▁entertainer	-13.1757
▁entertaining	-13.1757
▁enthusiasm	-13.1757
▁enthusiastic	-13.1757
▁enticed	-13.1757
▁entrance	-13.1757
▁enunciate	-13.1757
▁epic	-13.1757
▁epidemiology	-13.1757
▁equal	-13.1757
▁equator	-13.1757
▁equestrian	-13.1757
▁equilibrium	-13.1757
▁equipment	-13.1757
▁equipped	-13.1757
▁eraser	-13.1757
▁erasing	-13.1757
▁erect	-13.1757
▁ergaster	-13.1757
▁ernst	-13.1757
▁erosion	-13.1757
▁erotic	-13.1757
▁erotica	-13.1757
▁erotically	-13.1757
▁errigh	-13.1757
▁error	-13.1757
▁ersonal	-13.1757
▁erupted	-13.1757
▁escalator	-13.1757
▁essay	-13.1757
▁estefan	-13.1757
▁estelle's	-13.1757
▁eta	-13.1757
▁ethel's	-13.1757
▁ether	-13.1757
▁ethnic	-13.1757
▁ett	-13.1757
▁eucalyptus	-13.1757
▁euphoria	-13.1757
▁evaluate	-13.1757
▁evelyn	-13.1757
▁everbody	-13.1757
▁everythng's	-13.1757
▁eviction	-13.1757
▁evidence	-13.1757
▁evils	-13.1757
▁evolution	-13.1757
▁ewwuck	-13.1757
▁exaclty	-13.1757
▁exams	-13.1757
▁excavated	-13.1757
▁excedrin	-13.1757
▁exception	-13.1757
▁exceptionally	-13.1757
▁exclamation	-13.1757
▁exclusive	-13.1757
▁exclusively	-13.1757
▁execute	-13.1757
▁executive	-13.1757
▁executor	-13.1757
▁exert	-13.1757
▁exfoliated	-13.1757
▁exhaling	-13.1757
▁exhausting	-13.1757
▁exictement	-13.1757
▁existing	-13.1757
▁exit	-13.1757
▁expanded	-13.1757
▁expects	-13.1757
▁expense	-13.1757
▁experiences	-13.1757
▁experiment	-13.1757
▁expertise	-13.1757
▁expiration	-13.1757
▁explained	-13.1757
▁explains	-13.1757
▁exploded	-13.1757
▁explodes	-13.1757
▁exploding	-13.1757
▁expressions	-13.1757
▁expressive	-13.1757
▁expressly	-13.1757
▁expressway	-13.1757
▁extension	-13.1757
▁extravaganza	-13.1757
▁extreme	-13.1757
▁ey	-13.1757
▁eye's	-13.1757
▁eyebrow	-13.1757
▁eyesore	-13.1757
▁ezels	-13.1757
▁f.y.i	-13.1757
▁faaaaa	-13.1757
▁fabrics	-13.1757
▁fabulous	-13.1757
▁fabutec	-13.1757
▁facilitates	-13.1757
▁fade	-13.1757
▁faded	-13.1757
▁failure	-13.1757
▁failures	-13.1757
▁faint	-13.1757
▁fairies	-13.1757
▁faker	-13.1757
▁fallin	-13.1757
▁false	-13.1757
▁falsely	-13.1757
▁famine	-13.1757
▁fancier	-13.1757
▁fanny	-13.1757
▁fantastically	-13.1757
▁fares	-13.1757
▁farrell	-13.1757
▁farting	-13.1757
▁farts	-13.1757
▁fascist	-13.1757
▁fash	-13.1757
▁fasten	-13.1757
▁fastest	-13.1757
▁fathers	-13.1757
▁fatigues	-13.1757
▁fatty	-13.1757
▁favorites	-13.1757
▁favors	-13.1757
▁favours	-13.1757
▁faye	-13.1757
▁fbi	-13.1757
▁feared	-13.1757
▁feasible	-13.1757
▁feast	-13.1757
▁feasted	-13.1757
▁feasting	-13.1757
▁feat	-13.1757
▁features	-13.1757
▁february	-13.1757
▁feburary	-13.1757
▁feces	-13.1757
▁feeder	-13.1757
▁feesen	-13.1757
▁feisty	-13.1757
▁feliz	-13.1757
▁fellas	-13.1757
▁felon	-13.1757
▁feminism	-13.1757
▁fence	-13.1757
▁fences	-13.1757
▁ferdinad	-13.1757
▁fergie	-13.1757
▁ferrets	-13.1757
▁fertilize	-13.1757
▁fffff	-13.1757
▁fi	-13.1757
▁fictitious	-13.1757
▁fiddler	-13.1757
▁fiddling	-13.1757
▁fierce	-13.1757
▁fiery	-13.1757
▁fifties	-13.1757
▁figures	-13.1757
▁filed	-13.1757
▁files	-13.1757
▁filet	-13.1757
▁filipino	-13.1757
▁films	-13.1757
▁filters	-13.1757
▁finalist	-13.1757
▁finalists	-13.1757
▁finalized	-13.1757
▁finals	-13.1757
▁financially	-13.1757
▁financing	-13.1757
▁fingernail	-13.1757
▁fingernails	-13.1757
▁finishes	-13.1757
▁finkel	-13.1757
▁fireball's	-13.1757
▁firefly	-13.1757
▁firemen	-13.1757
▁fireplace	-13.1757
▁fireproof	-13.1757
▁firstborn	-13.1757
▁fished	-13.1757
▁fishhook	-13.1757
▁fitch	-13.1757
▁fitter	-13.1757
▁fitting	-13.1757
▁fives	-13.1757
▁fixable	-13.1757
▁fixating	-13.1757
▁flabby	-13.1757
▁flangin	-13.1757
▁flap	-13.1757
▁flashback	-13.1757
▁flashdance	-13.1757
▁flatness	-13.1757
▁flattery	-13.1757
▁flaunt	-13.1757
▁flavor	-13.1757
▁flavors	-13.1757
▁flaws	-13.1757
▁fledermaus	-13.1757
▁fleel	-13.1757
▁flenk	-13.1757
▁fleshy	-13.1757
▁flexed	-13.1757
▁fli	-13.1757
▁flicks	-13.1757
▁flies	-13.1757
▁flights	-13.1757
▁flimsy	-13.1757
▁flingin	-13.1757
▁flingy	-13.1757
▁flintstones	-13.1757
▁flirted	-13.1757
▁flirtin	-13.1757
▁flitted	-13.1757
▁flitting	-13.1757
▁float	-13.1757
▁floated	-13.1757
▁flood	-13.1757
▁flooff	-13.1757
▁floored	-13.1757
▁flopping	-13.1757
▁flora	-13.1757
▁florist	-13.1757
▁flouppe	-13.1757
▁flowered	-13.1757
▁flown	-13.1757
▁floyd	-13.1757
▁flu	-13.1757
▁fluent	-13.1757
▁fluff	-13.1757
▁fluffy	-13.1757
▁fluorescent	-13.1757
▁flushed	-13.1757
▁flushes	-13.1757
▁fly's	-13.1757
▁fo	-13.1757
▁foil	-13.1757
▁folder	-13.1757
▁follows	-13.1757
▁fonzy	-13.1757
▁foofy	-13.1757
▁foolish	-13.1757
▁footage	-13.1757
▁footloose	-13.1757
▁forbid	-13.1757
▁fore	-13.1757
▁foreigners	-13.1757
▁forensics	-13.1757
▁foreplay	-13.1757
▁forgave	-13.1757
▁forgetin	-13.1757
▁forgets	-13.1757
▁forgiveness	-13.1757
▁forgives	-13.1757
▁forgiving	-13.1757
▁forking	-13.1757
▁formality	-13.1757
▁formally	-13.1757
▁formation	-13.1757
▁former	-13.1757
▁formula	-13.1757
▁fossiles	-13.1757
▁fossilized	-13.1757
▁foster	-13.1757
▁foul	-13.1757
▁fountain	-13.1757
▁foursome	-13.1757
▁fowl	-13.1757
▁foxtrot	-13.1757
▁foxy	-13.1757
▁fr	-13.1757
▁fraggile	-13.1757
▁framed	-13.1757
▁franklin	-13.1757
▁frankly	-13.1757
▁franz's	-13.1757
▁frayed	-13.1757
▁freddie	-13.1757
▁fredrickson	-13.1757
▁freebie	-13.1757
▁freeman	-13.1757
▁freemont	-13.1757
▁frenaissance	-13.1757
▁frenzy	-13.1757
▁fresca	-13.1757
▁fresco	-13.1757
▁freshen	-13.1757
▁freshly	-13.1757
▁freshwater	-13.1757
▁freudian	-13.1757
▁fries	-13.1757
▁frigerate	-13.1757
▁friggin	-13.1757
▁fright	-13.1757
▁frighten	-13.1757
▁fritzy	-13.1757
▁frizzy	-13.1757
▁frog	-13.1757
▁frolicking	-13.1757
▁frost	-13.1757
▁frosty	-13.1757
▁froze	-13.1757
▁fruits	-13.1757
▁fruity	-13.1757
▁frying	-13.1757
▁fu	-13.1757
▁fuchsia	-13.1757
▁fuel	-13.1757
▁fuff	-13.1757
▁fuggetaboutit	-13.1757
▁fugitive	-13.1757
▁fulfill	-13.1757
▁fulfilled	-13.1757
▁fulfilling	-13.1757
▁fullest	-13.1757
▁fumble	-13.1757
▁fumes	-13.1757
▁fun's	-13.1757
▁funest	-13.1757
▁fungi	-13.1757
▁funky	-13.1757
▁funnily	-13.1757
▁furious	-13.1757
▁furlough	-13.1757
▁furnished	-13.1757
▁furry	-13.1757
▁fuss	-13.1757
▁g'bye	-13.1757
▁gadgets	-13.1757
▁gaelic	-13.1757
▁gag	-13.1757
▁gained	-13.1757
▁galaxies	-13.1757
▁galaxy	-13.1757
▁gallivanting	-13.1757
▁gallons	-13.1757
▁gals	-13.1757
▁gambled	-13.1757
▁gambler	-13.1757
▁gameboy	-13.1757
▁gandel	-13.1757
▁ganderson	-13.1757
▁ganged	-13.1757
▁gangin	-13.1757
▁ganja	-13.1757
▁gap	-13.1757
▁gar	-13.1757
▁garbaaaaaage	-13.1757
▁garlicky	-13.1757
▁garter	-13.1757
▁garters	-13.1757
▁gather	-13.1757
▁gawd	-13.1757
▁gawk	-13.1757
▁gazebo	-13.1757
▁gazette	-13.1757
▁gazillion	-13.1757
▁geeks	-13.1757
▁geena	-13.1757
▁gellerrr	-13.1757
▁gemini	-13.1757
▁generating	-13.1757
▁generation	-13.1757
▁genitals	-13.1757
▁gentleman	-13.1757
▁genuine	-13.1757
▁genuinely	-13.1757
▁geoffrey	-13.1757
▁geologists	-13.1757
▁geometry	-13.1757
▁georgio	-13.1757
▁gerbil	-13.1757
▁german	-13.1757
▁germans	-13.1757
▁germs	-13.1757
▁gerston	-13.1757
▁gesundheit	-13.1757
▁getaway	-13.1757
▁gettting	-13.1757
▁ghe	-13.1757
▁gi	-13.1757
▁gibson	-13.1757
▁giddy	-13.1757
▁gigantic	-13.1757
▁gigantosaurus	-13.1757
▁giggling	-13.1757
▁giggly	-13.1757
▁giiiiiiift	-13.1757
▁gilbert	-13.1757
▁gingeer	-13.1757
▁gingham	-13.1757
▁giorno	-13.1757
▁gippetto	-13.1757
▁giraffe	-13.1757
▁girlfriend's	-13.1757
▁girlish	-13.1757
▁give'them	-13.1757
▁glacier's	-13.1757
▁glamour	-13.1757
▁glance	-13.1757
▁glands	-13.1757
▁glee	-13.1757
▁glitter	-13.1757
▁glocken	-13.1757
▁glove	-13.1757
▁glynnis	-13.1757
▁gnaw	-13.1757
▁go.you	-13.1757
▁goat	-13.1757
▁goatee	-13.1757
▁goblins	-13.1757
▁goddess	-13.1757
▁godson	-13.1757
▁goff	-13.1757
▁gogh	-13.1757
▁goind	-13.1757
▁gonad	-13.1757
▁good!ok	-13.1757
▁goofin	-13.1757
▁goofy	-13.1757
▁gooooooo	-13.1757
▁goooooood	-13.1757
▁goooooooddddddd	-13.1757
▁goooooooooo	-13.1757
▁goralnik	-13.1757
▁goshdarnit	-13.1757
▁gossiping	-13.1757
▁gottliebs	-13.1757
▁gouged	-13.1757
▁gouging	-13.1757
▁gr	-13.1757
▁grabbin	-13.1757
▁grabbing	-13.1757
▁graceful	-13.1757
▁graff	-13.1757
▁graham	-13.1757
▁grammercy	-13.1757
▁grandchild	-13.1757
▁grandkid	-13.1757
▁grandma's	-13.1757
▁grandmothers	-13.1757
▁grandpa	-13.1757
▁grandparents	-13.1757
▁granted	-13.1757
▁grappa	-13.1757
▁grasp	-13.1757
▁grass	-13.1757
▁grate	-13.1757
▁grave	-13.1757
▁graveyard	-13.1757
▁gray	-13.1757
▁graze	-13.1757
▁grazed	-13.1757
▁grazie	-13.1757
▁greatness	-13.1757
▁greed	-13.1757
▁greely	-13.1757
▁greenmore's	-13.1757
▁greeting	-13.1757
▁gremlin	-13.1757
▁gremlins	-13.1757
▁grey	-13.1757
▁grief	-13.1757
▁grieve	-13.1757
▁grill	-13.1757
▁grin	-13.1757
▁grinch's	-13.1757
▁grips	-13.1757
▁groceries	-13.1757
▁groin	-13.1757
▁grooming	-13.1757
▁groomy	-13.1757
▁groovy	-13.1757
▁groping	-13.1757
▁grounds	-13.1757
▁groups	-13.1757
▁grove	-13.1757
▁grrreat	-13.1757
▁grrrreat	-13.1757
▁grub	-13.1757
▁grumpy	-13.1757
▁guaranteed	-13.1757
▁guava	-13.1757
▁guestroom	-13.1757
▁guggly	-13.1757
▁guidance	-13.1757
▁guides	-13.1757
▁guild	-13.1757
▁guire	-13.1757
▁guitars	-13.1757
▁gukki	-13.1757
▁gullible	-13.1757
▁gummi	-13.1757
▁gunderson	-13.1757
▁gunman	-13.1757
▁gunnersens	-13.1757
▁gunter	-13.1757
▁gunthers	-13.1757
▁guru	-13.1757
▁guuuyys	-13.1757
▁guys'd	-13.1757
▁guys'll	-13.1757
▁gynaecologist	-13.1757
▁gynecologist	-13.1757
▁ha,ha	-13.1757
▁haaaa	-13.1757
▁haaaah	-13.1757
▁haaaan	-13.1757
▁haah	-13.1757
▁habits	-13.1757
▁hacky	-13.1757
▁haggle	-13.1757
▁hahaha	-13.1757
▁haim	-13.1757
▁hair's	-13.1757
▁haircuts	-13.1757
▁haired	-13.1757
▁hairline	-13.1757
▁hairpiece	-13.1757
▁hairs	-13.1757
▁halen	-13.1757
▁haley	-13.1757
▁halfway	-13.1757
▁halibut	-13.1757
▁halle	-13.1757
▁hamburger	-13.1757
▁hamilton	-13.1757
▁hammel	-13.1757
▁hanagens	-13.1757
▁handbook	-13.1757
▁handkerchief	-13.1757
▁handkerchiefs	-13.1757
▁handles	-13.1757
▁handyman	-13.1757
▁hangover	-13.1757
▁hanks	-13.1757
▁haphazard	-13.1757
▁happ	-13.1757
▁happenin	-13.1757
▁happier	-13.1757
▁hardball	-13.1757
▁hardwood	-13.1757
▁hardy	-13.1757
▁harley	-13.1757
▁harrison	-13.1757
▁harry	-13.1757
▁harvard	-13.1757
▁hasmeje	-13.1757
▁hasty	-13.1757
▁hatless	-13.1757
▁haul	-13.1757
▁haunt	-13.1757
▁hawaii	-13.1757
▁hawaiian	-13.1757
▁hay	-13.1757
▁hazard	-13.1757
▁hazel	-13.1757
▁hbo	-13.1757
▁headboard	-13.1757
▁headdress	-13.1757
▁headin	-13.1757
▁headline	-13.1757
▁headliner	-13.1757
▁headlines	-13.1757
▁headsets	-13.1757
▁headway	-13.1757
▁heartbreaker	-13.1757
▁heath	-13.1757
▁heathcliff	-13.1757
▁heather	-13.1757
▁heavily	-13.1757
▁heaving	-13.1757
▁heeeeey	-13.1757
▁heeeiiiiii	-13.1757
▁heey	-13.1757
▁heeyyy	-13.1757
▁hehehe	-13.1757
▁hehheh	-13.1757
▁heidi	-13.1757
▁heirloom	-13.1757
▁heirlooms	-13.1757
▁helloooo	-13.1757
▁helpless	-13.1757
▁helvetica	-13.1757
▁hem	-13.1757
▁hemingway	-13.1757
▁hemp	-13.1757
▁her.alright	-13.1757
▁heritage	-13.1757
▁hermaphrodite	-13.1757
▁hewitt	-13.1757
▁hey!d'you	-13.1757
▁heyy	-13.1757
▁heyyy	-13.1757
▁heyyyy	-13.1757
▁heyyyyy	-13.1757
▁hiccups	-13.1757
▁hickey	-13.1757
▁hicks	-13.1757
▁hideous	-13.1757
▁hideously	-13.1757
▁highlights	-13.1757
▁highness	-13.1757
▁highschool	-13.1757
▁hiiiii	-13.1757
▁hills	-13.1757
▁hiney	-13.1757
▁hires	-13.1757
▁hitchhike	-13.1757
▁hitchhiker	-13.1757
▁hmmmmmmmmmm	-13.1757
▁hmmmmmmmmmmmmmm	-13.1757
▁hobbies	-13.1757
▁hoebe	-13.1757
▁hoh	-13.1757
▁holden	-13.1757
▁holder	-13.1757
▁holders	-13.1757
▁holierthanthou	-13.1757
▁holland	-13.1757
▁holmes	-13.1757
▁holocaust	-13.1757
▁homecoming	-13.1757
▁homerun	-13.1757
▁homes	-13.1757
▁hometowns	-13.1757
▁homey	-13.1757
▁homicide	-13.1757
▁homosexual	-13.1757
▁homosexually	-13.1757
▁honey!i	-13.1757
▁honeymooning	-13.1757
▁honour	-13.1757
▁honourable	-13.1757
▁honoured	-13.1757
▁hookin	-13.1757
▁hoos	-13.1757
▁hoped	-13.1757
▁hopped	-13.1757
▁horizontal	-13.1757
▁horn	-13.1757
▁horoscope	-13.1757
▁horrifying	-13.1757
▁horror	-13.1757
▁horses	-13.1757
▁hostages	-13.1757
▁hotbed	-13.1757
▁hotel's	-13.1757
▁hotels	-13.1757
▁hotline	-13.1757
▁hotties	-13.1757
▁hotty	-13.1757
▁household	-13.1757
▁housekeeper	-13.1757
▁housewares	-13.1757
▁houston	-13.1757
▁hovering	-13.1757
▁howard	-13.1757
▁howdya	-13.1757
▁howie	-13.1757
▁hu	-13.1757
▁hubba	-13.1757
▁hubby	-13.1757
▁huey	-13.1757
▁hugo	-13.1757
▁huhuh	-13.1757
▁humaaan	-13.1757
▁humanoid	-13.1757
▁humming	-13.1757
▁humour	-13.1757
▁hunky	-13.1757
▁hunter	-13.1757
▁hurl	-13.1757
▁hurley	-13.1757
▁hurricane	-13.1757
▁hurtin	-13.1757
▁husband's	-13.1757
▁hussy	-13.1757
▁huts	-13.1757
▁hydrosaurids	-13.1757
▁hydrosaurs	-13.1757
▁hygiene	-13.1757
▁hygienist	-13.1757
▁hymn	-13.1757
▁hyper	-13.1757
▁hypnotise	-13.1757
▁hypnotised	-13.1757
▁hypothesized	-13.1757
▁hysterical	-13.1757
▁hyundai	-13.1757
▁i,i	-13.1757
▁ian	-13.1757
▁iceman	-13.1757
▁icing	-13.1757
▁icy	-13.1757
▁id	-13.1757
▁id's	-13.1757
▁ideally	-13.1757
▁identify	-13.1757
▁identity	-13.1757
▁ignoring	-13.1757
▁ii	-13.1757
▁iiiii	-13.1757
▁iit	-13.1757
▁ikea	-13.1757
▁il	-13.1757
▁illegally	-13.1757
▁illustrated	-13.1757
▁imaging	-13.1757
▁imax	-13.1757
▁immature	-13.1757
▁immaturity	-13.1757
▁immunized	-13.1757
▁imp	-13.1757
▁impart	-13.1757
▁impatient	-13.1757
▁impending	-13.1757
▁imperial	-13.1757
▁impish	-13.1757
▁implicit	-13.1757
▁implode	-13.1757
▁imply	-13.1757
▁importance	-13.1757
▁impresses	-13.1757
▁impromptu	-13.1757
▁improv	-13.1757
▁improved	-13.1757
▁impulsive	-13.1757
▁impulsively	-13.1757
▁inadequate	-13.1757
▁incapable	-13.1757
▁incessant	-13.1757
▁incest	-13.1757
▁inch	-13.1757
▁inching	-13.1757
▁inclined	-13.1757
▁include	-13.1757
▁included	-13.1757
▁includes	-13.1757
▁incomes	-13.1757
▁incomptent	-13.1757
▁increase	-13.1757
▁indecent	-13.1757
▁india	-13.1757
▁indignant	-13.1757
▁individually	-13.1757
▁induce	-13.1757
▁industrial	-13.1757
▁industry	-13.1757
▁inexplicable	-13.1757
▁infamous	-13.1757
▁infants	-13.1757
▁infect	-13.1757
▁infinite	-13.1757
▁inflatable	-13.1757
▁inflate	-13.1757
▁inflated	-13.1757
▁influence	-13.1757
▁ingrid	-13.1757
▁inhale	-13.1757
▁inhibitions	-13.1757
▁initiative	-13.1757
▁injure	-13.1757
▁inlcuding	-13.1757
▁innsbruck	-13.1757
▁innuendoes	-13.1757
▁input	-13.1757
▁inputting	-13.1757
▁inquiry	-13.1757
▁insensitive	-13.1757
▁insides	-13.1757
▁insightful	-13.1757
▁insights	-13.1757
▁insinuation	-13.1757
▁insisting	-13.1757
▁inspection	-13.1757
▁inspectors	-13.1757
▁inspiration	-13.1757
▁inspire	-13.1757
▁inspired	-13.1757
▁install	-13.1757
▁instruction	-13.1757
▁insult	-13.1757
▁integral	-13.1757
▁intellectual	-13.1757
▁intelligence	-13.1757
▁intended	-13.1757
▁intent	-13.1757
▁intentional	-13.1757
▁intentions	-13.1757
▁intently	-13.1757
▁interchangeable	-13.1757
▁intercourse	-13.1757
▁interestingly	-13.1757
▁interests	-13.1757
▁interfacing	-13.1757
▁intermission	-13.1757
▁intern	-13.1757
▁internationally	-13.1757
▁interruptions	-13.1757
▁interspersed	-13.1757
▁interstate	-13.1757
▁interviewer	-13.1757
▁interviews	-13.1757
▁intestine	-13.1757
▁intimacy	-13.1757
▁intimate	-13.1757
▁intimdating	-13.1757
▁intimidated	-13.1757
▁intravenous	-13.1757
▁intricate	-13.1757
▁intriguing	-13.1757
▁introducing	-13.1757
▁invade	-13.1757
▁invaders	-13.1757
▁inventing	-13.1757
▁inventor	-13.1757
▁inventory	-13.1757
▁invested	-13.1757
▁iran	-13.1757
▁irene	-13.1757
▁irritate	-13.1757
▁irritating	-13.1757
▁ish	-13.1757
▁island's	-13.1757
▁ists	-13.1757
▁itchy	-13.1757
▁itinerary	-13.1757
▁itsa	-13.1757
▁ity	-13.1757
▁iverson	-13.1757
▁ized	-13.1757
▁jackpot	-13.1757
▁jalepeno	-13.1757
▁jamaican	-13.1757
▁jamestown	-13.1757
▁jamie	-13.1757
▁jammer	-13.1757
▁jammies	-13.1757
▁jamming	-13.1757
▁jams	-13.1757
▁janet	-13.1757
▁jared	-13.1757
▁jarred	-13.1757
▁jason's	-13.1757
▁java	-13.1757
▁jaw	-13.1757
▁jaws	-13.1757
▁jazzed	-13.1757
▁jean	-13.1757
▁jeffery	-13.1757
▁jellies	-13.1757
▁jello	-13.1757
▁jen	-13.1757
▁jeopardise	-13.1757
▁jeopardize	-13.1757
▁jerry	-13.1757
▁jess	-13.1757
▁jester	-13.1757
▁jethro	-13.1757
▁jetson	-13.1757
▁jeu	-13.1757
▁jeweler	-13.1757
▁jews	-13.1757
▁jfk	-13.1757
▁jillion	-13.1757
▁jim	-13.1757
▁jimbo	-13.1757
▁jimmies	-13.1757
▁jimmy	-13.1757
▁jinx	-13.1757
▁joanna's	-13.1757
▁jockstrap	-13.1757
▁jody	-13.1757
▁jog	-13.1757
▁jogs	-13.1757
▁johnos	-13.1757
▁joked	-13.1757
▁jokey	-13.1757
▁jolie	-13.1757
▁jollys	-13.1757
▁jordan	-13.1757
▁jouer	-13.1757
▁journal	-13.1757
▁jr.jr	-13.1757
▁judgey	-13.1757
▁judgmental	-13.1757
▁juggle	-13.1757
▁juggler	-13.1757
▁juggling	-13.1757
▁jughead	-13.1757
▁juices	-13.1757
▁jules	-13.1757
▁julia	-13.1757
▁julia's	-13.1757
▁julie's	-13.1757
▁jullienne	-13.1757
▁july	-13.1757
▁jumble	-13.1757
▁jumper	-13.1757
▁jumpy	-13.1757
▁jus	-13.1757
▁justify	-13.1757
▁kara	-13.1757
▁kara's	-13.1757
▁karaoke	-13.1757
▁katelynn	-13.1757
▁kath	-13.1757
▁katherine	-13.1757
▁kathy's	-13.1757
▁katy	-13.1757
▁kea	-13.1757
▁keeton	-13.1757
▁keg	-13.1757
▁kelly	-13.1757
▁kennedy	-13.1757
▁kermit	-13.1757
▁kerplunk	-13.1757
▁kevin	-13.1757
▁keynote	-13.1757
▁kicky	-13.1757
▁kidman	-13.1757
▁kidnap	-13.1757
▁kidnappers	-13.1757
▁kidney	-13.1757
▁kiev	-13.1757
▁kiki	-13.1757
▁killers	-13.1757
▁killin	-13.1757
▁kiln	-13.1757
▁kilt	-13.1757
▁kims	-13.1757
▁kind've	-13.1757
▁kinkiest	-13.1757
▁kinky	-13.1757
▁kirk	-13.1757
▁kissey	-13.1757
▁kissin	-13.1757
▁kissy	-13.1757
▁kit	-13.1757
▁kitten	-13.1757
▁kittens	-13.1757
▁kl	-13.1757
▁klan	-13.1757
▁kleenex	-13.1757
▁klein	-13.1757
▁klien	-13.1757
▁kn	-13.1757
▁knack	-13.1757
▁knapsack	-13.1757
▁kneed	-13.1757
▁knelt	-13.1757
▁knobs	-13.1757
▁knockout	-13.1757
▁knooow	-13.1757
▁knot	-13.1757
▁know,you	-13.1757
▁knuckles	-13.1757
▁koala	-13.1757
▁koffie	-13.1757
▁koondis	-13.1757
▁korean	-13.1757
▁kostelic	-13.1757
▁ku	-13.1757
▁kurt	-13.1757
▁kwan	-13.1757
▁kyle	-13.1757
▁l.a	-13.1757
▁labeled	-13.1757
▁labour	-13.1757
▁lacey	-13.1757
▁laceys	-13.1757
▁lack	-13.1757
▁lacrosse	-13.1757
▁lad	-13.1757
▁laddies	-13.1757
▁lady's	-13.1757
▁ladybug	-13.1757
▁ladybugs	-13.1757
▁lafite	-13.1757
▁lag	-13.1757
▁lah	-13.1757
▁lamauge	-13.1757
▁lambs	-13.1757
▁lands	-13.1757
▁lane	-13.1757
▁lansb	-13.1757
▁lapdance	-13.1757
▁larges	-13.1757
▁lashed	-13.1757
▁lassie	-13.1757
▁lassiter?he	-13.1757
▁lastin	-13.1757
▁laude	-13.1757
▁lauder	-13.1757
▁laughs	-13.1757
▁laundorama	-13.1757
▁lava	-13.1757
▁laverne	-13.1757
▁lawfully	-13.1757
▁lawyers	-13.1757
▁layman	-13.1757
▁leader	-13.1757
▁leaders	-13.1757
▁leaf	-13.1757
▁leak	-13.1757
▁leakey	-13.1757
▁leaking	-13.1757
▁leaning	-13.1757
▁leans	-13.1757
▁learners	-13.1757
▁learnin	-13.1757
▁leathery	-13.1757
▁lecturer	-13.1757
▁leeeeean	-13.1757
▁lefty	-13.1757
▁legless	-13.1757
▁lend	-13.1757
▁lending	-13.1757
▁lens	-13.1757
▁lenses	-13.1757
▁leprechaun	-13.1757
▁leroy	-13.1757
▁les	-13.1757
▁lesbi	-13.1757
▁lesbianism	-13.1757
▁lesbinims	-13.1757
▁lest	-13.1757
▁letch	-13.1757
▁lettin	-13.1757
▁lettuce	-13.1757
▁lewd	-13.1757
▁liberace	-13.1757
▁liberated	-13.1757
▁librarian	-13.1757
▁libraries	-13.1757
▁lick	-13.1757
▁licked	-13.1757
▁lid	-13.1757
▁liddy	-13.1757
▁liebawitz	-13.1757
▁lifeboat	-13.1757
▁lifestyle	-13.1757
▁lightpost	-13.1757
▁ligrens	-13.1757
▁likeness	-13.1757
▁likin	-13.1757
▁lilian	-13.1757
▁lilly's	-13.1757
▁lily	-13.1757
▁lime	-13.1757
▁limitations	-13.1757
▁limits	-13.1757
▁limo	-13.1757
▁limos	-13.1757
▁lines.they	-13.1757
▁lineup	-13.1757
▁lingo	-13.1757
▁lint	-13.1757
▁linus	-13.1757
▁linzer	-13.1757
▁lion	-13.1757
▁lions	-13.1757
▁liotta	-13.1757
▁liquids	-13.1757
▁liquor	-13.1757
▁liquored	-13.1757
▁lire	-13.1757
▁listed	-13.1757
▁listing	-13.1757
▁lists	-13.1757
▁litman	-13.1757
▁litter	-13.1757
▁littered	-13.1757
▁lively	-13.1757
▁liver	-13.1757
▁livered	-13.1757
▁livin	-13.1757
▁liza	-13.1757
▁lizards	-13.1757
▁loaded	-13.1757
▁loaning	-13.1757
▁loathe	-13.1757
▁loathing	-13.1757
▁lobbing	-13.1757
▁loca	-13.1757
▁local	-13.1757
▁locate	-13.1757
▁logan	-13.1757
▁lokk	-13.1757
▁longs	-13.1757
▁longshot	-13.1757
▁loogie	-13.1757
▁loon	-13.1757
▁loong	-13.1757
▁loooot	-13.1757
▁looters	-13.1757
▁lopped	-13.1757
▁loren	-13.1757
▁loreo	-13.1757
▁lorraine	-13.1757
▁lotsa	-13.1757
▁lotta	-13.1757
▁lou	-13.1757
▁loudly	-13.1757
▁louis	-13.1757
▁louisiana	-13.1757
▁lovable	-13.1757
▁loveable	-13.1757
▁loverson	-13.1757
▁lovey	-13.1757
▁lowder	-13.1757
▁lowered	-13.1757
▁lu	-13.1757
▁luchhi	-13.1757
▁lucifer	-13.1757
▁lucked	-13.1757
▁luffing	-13.1757
▁luger	-13.1757
▁lui	-13.1757
▁lukewarm	-13.1757
▁lumberjack	-13.1757
▁lunchbox	-13.1757
▁luncheon	-13.1757
▁lunching	-13.1757
▁lung	-13.1757
▁lunging	-13.1757
▁lurking	-13.1757
▁lusting	-13.1757
▁lusts	-13.1757
▁luther	-13.1757
▁luuuuuuuuck	-13.1757
▁lycra	-13.1757
▁lysol	-13.1757
▁maaan	-13.1757
▁macaveli	-13.1757
▁mached	-13.1757
▁macintosh	-13.1757
▁macy	-13.1757
▁macy's	-13.1757
▁macys	-13.1757
▁madcap	-13.1757
▁magellan	-13.1757
▁magically	-13.1757
▁magioni	-13.1757
▁magma	-13.1757
▁magnetic	-13.1757
▁magnetism	-13.1757
▁mahjong	-13.1757
▁mai	-13.1757
▁maid's	-13.1757
▁maids	-13.1757
▁mailer	-13.1757
▁mailroom	-13.1757
▁mails	-13.1757
▁maintaining	-13.1757
▁majesky	-13.1757
▁majesty	-13.1757
▁malfunctioning	-13.1757
▁mall	-13.1757
▁mamma	-13.1757
▁mammoth	-13.1757
▁managed	-13.1757
▁management	-13.1757
▁manchild	-13.1757
▁maneuver	-13.1757
▁mangled	-13.1757
▁mango	-13.1757
▁manheads	-13.1757
▁manhole	-13.1757
▁manhood	-13.1757
▁mani	-13.1757
▁maniac	-13.1757
▁manipulated	-13.1757
▁manipulative	-13.1757
▁manner	-13.1757
▁manning	-13.1757
▁mansion	-13.1757
▁manual	-13.1757
▁manueveored	-13.1757
▁manuscript	-13.1757
▁manuver	-13.1757
▁maps	-13.1757
▁marathon	-13.1757
▁marce	-13.1757
▁marcel's	-13.1757
▁march	-13.1757
▁marching	-13.1757
▁margaret's	-13.1757
▁marie	-13.1757
▁marina	-13.1757
▁marjorie's	-13.1757
▁marked	-13.1757
▁markers	-13.1757
▁marking	-13.1757
▁marklan	-13.1757
▁marlon	-13.1757
▁marmalades	-13.1757
▁maroon	-13.1757
▁marring	-13.1757
▁marsha	-13.1757
▁marshall	-13.1757
▁marshmallows	-13.1757
▁marshmellows	-13.1757
▁martina	-13.1757
▁martinis	-13.1757
▁martisis	-13.1757
▁mashed	-13.1757
▁mask	-13.1757
▁massapequa	-13.1757
▁mastered	-13.1757
▁maternal	-13.1757
▁mathematician	-13.1757
▁matie	-13.1757
▁matrimony	-13.1757
▁maturity	-13.1757
▁mauled	-13.1757
▁mauvvve	-13.1757
▁maxed	-13.1757
▁mayo	-13.1757
▁mblue	-13.1757
▁mboscodictiosaur	-13.1757
▁mccheese	-13.1757
▁mcdowell's	-13.1757
▁mcgroin	-13.1757
▁mchann	-13.1757
▁mckenna	-13.1757
▁mclane	-13.1757
▁mcnailshisstudents	-13.1757
▁mcneeley	-13.1757
▁mcpretty	-13.1757
▁md	-13.1757
▁me.if	-13.1757
▁mealy	-13.1757
▁meancing	-13.1757
▁meaner	-13.1757
▁measured	-13.1757
▁measures	-13.1757
▁measuring	-13.1757
▁meat's	-13.1757
▁meatloaf	-13.1757
▁meats	-13.1757
▁meatwise	-13.1757
▁mechanical	-13.1757
▁mechanism	-13.1757
▁med	-13.1757
▁medal	-13.1757
▁meddling	-13.1757
▁medeio	-13.1757
▁medication	-13.1757
▁mediterranean	-13.1757
▁medley	-13.1757
▁meee	-13.1757
▁mega	-13.1757
▁meh	-13.1757
▁melba	-13.1757
▁mellow	-13.1757
▁melon	-13.1757
▁melons	-13.1757
▁meltt	-13.1757
▁memo	-13.1757
▁memorise	-13.1757
▁memos	-13.1757
▁mendels	-13.1757
▁menstruating	-13.1757
▁mentality	-13.1757
▁mentioning	-13.1757
▁mentor	-13.1757
▁merchandising	-13.1757
▁merchants	-13.1757
▁merci	-13.1757
▁mercutio	-13.1757
▁mermaid	-13.1757
▁mermen	-13.1757
▁merriment	-13.1757
▁messenger	-13.1757
▁messer	-13.1757
▁messers	-13.1757
▁messes	-13.1757
▁messies	-13.1757
▁metal	-13.1757
▁metaphorically	-13.1757
▁meteor	-13.1757
▁metric	-13.1757
▁mets	-13.1757
▁mexican	-13.1757
▁miami	-13.1757
▁michelin	-13.1757
▁michener	-13.1757
▁micro	-13.1757
▁microphone	-13.1757
▁microscopes	-13.1757
▁microwave	-13.1757
▁midget	-13.1757
▁midterm	-13.1757
▁midterms	-13.1757
▁mighta	-13.1757
▁mignon	-13.1757
▁milan	-13.1757
▁mileu	-13.1757
▁milking	-13.1757
▁millie	-13.1757
▁milligrams	-13.1757
▁millionaire's	-13.1757
▁millionth	-13.1757
▁milne	-13.1757
▁milwaukee	-13.1757
▁mime	-13.1757
▁mimey	-13.1757
▁mimosa	-13.1757
▁mincemeat	-13.1757
▁minding	-13.1757
▁minelli	-13.1757
▁mines	-13.1757
▁mingle	-13.1757
▁minimum	-13.1757
▁minis	-13.1757
▁ministers	-13.1757
▁ministry	-13.1757
▁minks	-13.1757
▁minnelli	-13.1757
▁minnie	-13.1757
▁minor	-13.1757
▁minus	-13.1757
▁mio	-13.1757
▁mira	-13.1757
▁mirrored	-13.1757
▁mirrors	-13.1757
▁mis	-13.1757
▁mischa	-13.1757
▁misshapen	-13.1757
▁missile	-13.1757
▁missin	-13.1757
▁mississipily	-13.1757
▁mississippilesly	-13.1757
▁missouri	-13.1757
▁misspoke	-13.1757
▁misters	-13.1757
▁mistletoe	-13.1757
▁mistress	-13.1757
▁misunderstand	-13.1757
▁mitch	-13.1757
▁mitzi	-13.1757
▁mitzvah	-13.1757
▁mmmhm	-13.1757
▁mmmmmm	-13.1757
▁mmwa	-13.1757
▁mob	-13.1757
▁mobile	-13.1757
▁moderation	-13.1757
▁moisture	-13.1757
▁moisturizer	-13.1757
▁molding	-13.1757
▁molecular	-13.1757
▁molesting	-13.1757
▁moment's	-13.1757
▁momi	-13.1757
▁monarch	-13.1757
▁mondler	-13.1757
▁monger	-13.1757
▁monican	-13.1757
▁monican't	-13.1757
▁monitor	-13.1757
▁monkey's	-13.1757
▁monnnnn	-13.1757
▁mono	-13.1757
▁monocle	-13.1757
▁monogamy	-13.1757
▁monopoly	-13.1757
▁monsieur	-13.1757
▁monsoon	-13.1757
▁montgomery	-13.1757
▁mooching	-13.1757
▁mookurgee	-13.1757
▁mooning	-13.1757
▁moonlit	-13.1757
▁mooooo	-13.1757
▁mopeds	-13.1757
▁mopping	-13.1757
▁morgan	-13.1757
▁mork	-13.1757
▁morly	-13.1757
▁moron	-13.1757
▁morphin	-13.1757
▁mosey	-13.1757
▁moskowitz	-13.1757
▁moss	-13.1757
▁motif	-13.1757
▁motivational	-13.1757
▁motto	-13.1757
▁mourn	-13.1757
▁mouthing	-13.1757
▁mouthwash	-13.1757
▁movers	-13.1757
▁mr.peanut	-13.1757
▁mri	-13.1757
▁mtv	-13.1757
▁mugsy	-13.1757
▁muhlbrat	-13.1757
▁mulch	-13.1757
▁multi	-13.1757
▁multinational	-13.1757
▁multiply	-13.1757
▁mum's	-13.1757
▁mumble	-13.1757
▁munch	-13.1757
▁munsch	-13.1757
▁muppets	-13.1757
▁murderer	-13.1757
▁muriel	-13.1757
▁murky	-13.1757
▁murray	-13.1757
▁muscle's	-13.1757
▁mushroom	-13.1757
▁musician	-13.1757
▁musicians	-13.1757
▁muskogee	-13.1757
▁mussberger	-13.1757
▁mussolini's	-13.1757
▁mustache	-13.1757
▁mustached	-13.1757
▁mustercard	-13.1757
▁musty	-13.1757
▁mwha	-13.1757
▁mwwwooooo	-13.1757
▁myers	-13.1757
▁mystical	-13.1757
▁myth	-13.1757
▁myyy	-13.1757
▁n.y.p.d	-13.1757
▁n.y.you	-13.1757
▁naa	-13.1757
▁nacho	-13.1757
▁nachos	-13.1757
▁nagging	-13.1757
▁nailing	-13.1757
▁namaste	-13.1757
▁namesake	-13.1757
▁nametag	-13.1757
▁napkins	-13.1757
▁naps	-13.1757
▁narrate	-13.1757
▁nasa's	-13.1757
▁nasty	-13.1757
▁nate	-13.1757
▁nathan	-13.1757
▁nations	-13.1757
▁navidad	-13.1757
▁navy	-13.1757
▁neatly	-13.1757
▁neccessarily	-13.1757
▁necklaces	-13.1757
▁necks	-13.1757
▁nectarines	-13.1757
▁needless	-13.1757
▁neeson	-13.1757
▁negates	-13.1757
▁negativity	-13.1757
▁neglected	-13.1757
▁negotiation	-13.1757
▁neighbor's	-13.1757
▁neighbours	-13.1757
▁neihosenstein	-13.1757
▁nen	-13.1757
▁nephew	-13.1757
▁nerds	-13.1757
▁nerves	-13.1757
▁nestle	-13.1757
▁nether	-13.1757
▁networking	-13.1757
▁networks	-13.1757
▁neuman	-13.1757
▁neurotic	-13.1757
▁neutral	-13.1757
▁nevadaversary	-13.1757
▁newcastle	-13.1757
▁newlywed	-13.1757
▁newsstand	-13.1757
▁nibbly	-13.1757
▁nicholson	-13.1757
▁nighties	-13.1757
▁nighty	-13.1757
▁nik	-13.1757
▁nip	-13.1757
▁nipular	-13.1757
▁nngghhh	-13.1757
▁nnnnn	-13.1757
▁no!you	-13.1757
▁noble	-13.1757
▁nod	-13.1757
▁nodding	-13.1757
▁nog	-13.1757
▁noho	-13.1757
▁nokululu	-13.1757
▁nomad	-13.1757
▁nominees	-13.1757
▁nonononononnononono	-13.1757
▁nononononono	-13.1757
▁nononowaitwaitwaitnono	-13.1757
▁nonstop	-13.1757
▁noooooo	-13.1757
▁nooooooo	-13.1757
▁nora	-13.1757
▁norma	-13.1757
▁norman	-13.1757
▁nos	-13.1757
▁nosal	-13.1757
▁noses	-13.1757
▁notebook	-13.1757
▁noted	-13.1757
▁notepads	-13.1757
▁noth	-13.1757
▁nother	-13.1757
▁nothing's	-13.1757
▁nothings	-13.1757
▁noticing	-13.1757
▁nouse	-13.1757
▁nova	-13.1757
▁novels	-13.1757
▁novelty	-13.1757
▁november	-13.1757
▁nowadays	-13.1757
▁nozzles	-13.1757
▁nudes	-13.1757
▁nudge	-13.1757
▁nugies	-13.1757
▁numb	-13.1757
▁numbered	-13.1757
▁nun	-13.1757
▁nuns	-13.1757
▁nurturing	-13.1757
▁nutty	-13.1757
▁ny.c	-13.1757
▁oat	-13.1757
▁oats	-13.1757
▁ob	-13.1757
▁obesity	-13.1757
▁obituaries	-13.1757
▁objectify	-13.1757
▁objects	-13.1757
▁obligation	-13.1757
▁oblivious	-13.1757
▁oboe	-13.1757
▁obscene	-13.1757
▁observe	-13.1757
▁obsessing	-13.1757
▁obsolete	-13.1757
▁occasions	-13.1757
▁occupation	-13.1757
▁occupied	-13.1757
▁occur	-13.1757
▁occurred	-13.1757
▁occurrence	-13.1757
▁occurring	-13.1757
▁oddly	-13.1757
▁oebe	-13.1757
▁of'mally	-13.1757
▁offence	-13.1757
▁offically	-13.1757
▁offs	-13.1757
▁ogh	-13.1757
▁ohhhhhh	-13.1757
▁ohhhhhhhh	-13.1757
▁ohhhhhhhhh	-13.1757
▁ohhhhhhhhhhh	-13.1757
▁oily	-13.1757
▁oink	-13.1757
▁ok.I	-13.1757
▁okayyyyy	-13.1757
▁oke	-13.1757
▁okey	-13.1757
▁olivia's	-13.1757
▁olympic	-13.1757
▁omaha	-13.1757
▁ombrah	-13.1757
▁on.you	-13.1757
▁ong	-13.1757
▁online	-13.1757
▁ons	-13.1757
▁ooh,ooh,ooh	-13.1757
▁oon	-13.1757
▁oooo	-13.1757
▁ooooo	-13.1757
▁oooooooh	-13.1757
▁oooooooooh	-13.1757
▁ooooooooooh	-13.1757
▁ooory	-13.1757
▁oopsey	-13.1757
▁ooy	-13.1757
▁openness	-13.1757
▁opinions	-13.1757
▁opportunities	-13.1757
▁opposed	-13.1757
▁optional	-13.1757
▁oral	-13.1757
▁orbit	-13.1757
▁orbiting	-13.1757
▁ordained	-13.1757
▁ordering	-13.1757
▁orderly	-13.1757
▁oregano	-13.1757
▁oregon	-13.1757
▁organise	-13.1757
▁organised	-13.1757
▁organizational	-13.1757
▁organizing	-13.1757
▁orgasm	-13.1757
▁orgasms	-13.1757
▁orgies	-13.1757
▁orient	-13.1757
▁orientation	-13.1757
▁originally	-13.1757
▁originated	-13.1757
▁ornamental	-13.1757
▁ornaments	-13.1757
▁orphans	-13.1757
▁orrr	-13.1757
▁orthodontists	-13.1757
▁orthodox	-13.1757
▁os	-13.1757
▁osmond	-13.1757
▁ou	-13.1757
▁ouchy	-13.1757
▁ought	-13.1757
▁ouh	-13.1757
▁oui	-13.1757
▁ounce	-13.1757
▁outa	-13.1757
▁outbid	-13.1757
▁outing	-13.1757
▁outlaw	-13.1757
▁outlet	-13.1757
▁outlets	-13.1757
▁outloud	-13.1757
▁outsider	-13.1757
▁overall	-13.1757
▁overboard	-13.1757
▁overcame	-13.1757
▁overcharge	-13.1757
▁overhand	-13.1757
▁overhead	-13.1757
▁overly	-13.1757
▁overnight	-13.1757
▁overrated	-13.1757
▁overreacting	-13.1757
▁overuse	-13.1757
▁overwhelmed	-13.1757
▁ovulation	-13.1757
▁owly	-13.1757
▁owns	-13.1757
▁owwwwww	-13.1757
▁p.m	-13.1757
▁pa	-13.1757
▁pablo	-13.1757
▁pace	-13.1757
▁pacifiers	-13.1757
▁pacifist	-13.1757
▁pacing	-13.1757
▁packaging	-13.1757
▁packs	-13.1757
▁paddle	-13.1757
▁paddling	-13.1757
▁pademarie	-13.1757
▁pageanting	-13.1757
▁pager	-13.1757
▁painkillers	-13.1757
▁painless	-13.1757
▁paintings	-13.1757
▁pair.why	-13.1757
▁pairs	-13.1757
▁paisan	-13.1757
▁pajamas	-13.1757
▁palaeontologist	-13.1757
▁palaeontology	-13.1757
▁paleonthologist	-13.1757
▁paleontological	-13.1757
▁palian	-13.1757
▁palm	-13.1757
▁palmolive	-13.1757
▁palpable	-13.1757
▁pamela	-13.1757
▁pampers	-13.1757
▁panel	-13.1757
▁pangea	-13.1757
▁pansies	-13.1757
▁pansy	-13.1757
▁pantsuit	-13.1757
▁panty	-13.1757
▁pao	-13.1757
▁parachute	-13.1757
▁paraded	-13.1757
▁paragraph	-13.1757
▁parallel	-13.1757
▁parenting	-13.1757
▁parka	-13.1757
▁parkway	-13.1757
▁parle	-13.1757
▁parm	-13.1757
▁part's	-13.1757
▁participate	-13.1757
▁particles	-13.1757
▁particularly	-13.1757
▁partum	-13.1757
▁passages	-13.1757
▁passageway	-13.1757
▁passengers	-13.1757
▁passin	-13.1757
▁passions	-13.1757
▁pasta	-13.1757
▁pasty	-13.1757
▁pate	-13.1757
▁patented	-13.1757
▁paths	-13.1757
▁patients	-13.1757
▁pats	-13.1757
▁pattern	-13.1757
▁paul's	-13.1757
▁paulo's	-13.1757
▁paw	-13.1757
▁payback	-13.1757
▁paycheck	-13.1757
▁payment	-13.1757
▁payout	-13.1757
▁payroll	-13.1757
▁pbbqqt	-13.1757
▁pea	-13.1757
▁peaceful	-13.1757
▁peaches	-13.1757
▁peacock	-13.1757
▁pearl	-13.1757
▁peasant	-13.1757
▁peck	-13.1757
▁pedaling	-13.1757
▁pedals	-13.1757
▁pedi	-13.1757
▁peeh	-13.1757
▁peelers	-13.1757
▁peephole	-13.1757
▁peeping	-13.1757
▁pees	-13.1757
▁pencils	-13.1757
▁penella	-13.1757
▁penetrate	-13.1757
▁penguins	-13.1757
▁pennies	-13.1757
▁penses	-13.1757
▁people'll	-13.1757
▁peoples	-13.1757
▁pep	-13.1757
▁peppers	-13.1757
▁peppiness	-13.1757
▁pepponi	-13.1757
▁perceptive	-13.1757
▁performed	-13.1757
▁periods	-13.1757
▁perishable	-13.1757
▁perkazet	-13.1757
▁perps	-13.1757
▁perry	-13.1757
▁personalities	-13.1757
▁personnel	-13.1757
▁peru	-13.1757
▁perverson	-13.1757
▁pesos	-13.1757
▁petit	-13.1757
▁petri	-13.1757
▁petticure	-13.1757
▁peu	-13.1757
▁pfeeeh	-13.1757
▁pff	-13.1757
▁pffffffft	-13.1757
▁pffft	-13.1757
▁pffhah	-13.1757
▁pfieffer	-13.1757
▁pfoof	-13.1757
▁phallic	-13.1757
▁pharmaceutical	-13.1757
▁pharmacist	-13.1757
▁phaybobo	-13.1757
▁phebes	-13.1757
▁pheeb	-13.1757
▁pheromones	-13.1757
▁phewbedo	-13.1757
▁phobia	-13.1757
▁phobo	-13.1757
▁phoebeball	-13.1757
▁phoene	-13.1757
▁photocopied	-13.1757
▁photograph	-13.1757
▁photographs	-13.1757
▁photography	-13.1757
▁phrases	-13.1757
▁physician	-13.1757
▁picket	-13.1757
▁pickings	-13.1757
▁pickup	-13.1757
▁picky	-13.1757
▁picture's	-13.1757
▁pier	-13.1757
▁pierced	-13.1757
▁pigeons	-13.1757
▁pigtails	-13.1757
▁pilates	-13.1757
▁pillar	-13.1757
▁pillars	-13.1757
▁pillman	-13.1757
▁pillowcases	-13.1757
▁pinball	-13.1757
▁pinch	-13.1757
▁pinchable	-13.1757
▁pine	-13.1757
▁pinecones	-13.1757
▁pinhead	-13.1757
▁pioneers	-13.1757
▁pirates	-13.1757
▁pisst	-13.1757
▁pita	-13.1757
▁pitbul	-13.1757
▁pitcher	-13.1757
▁pitstains	-13.1757
▁pittain	-13.1757
▁pitting	-13.1757
▁pittsburgh	-13.1757
▁pizzeria	-13.1757
▁pla	-13.1757
▁placenta	-13.1757
▁placing	-13.1757
▁plagued	-13.1757
▁plaid	-13.1757
▁plain	-13.1757
▁plaisir	-13.1757
▁planeload	-13.1757
▁planes	-13.1757
▁plank	-13.1757
▁planner	-13.1757
▁plate's	-13.1757
▁platforms	-13.1757
▁platonic	-13.1757
▁platoon	-13.1757
▁platter	-13.1757
▁playfully	-13.1757
▁playin	-13.1757
▁plea	-13.1757
▁please!honey	-13.1757
▁pleasing	-13.1757
▁pleh	-13.1757
▁pleistocene	-13.1757
▁plicit	-13.1757
▁plug	-13.1757
▁plugged	-13.1757
▁plumber	-13.1757
▁plummet	-13.1757
▁plunge	-13.1757
▁plunk	-13.1757
▁plural	-13.1757
▁pneumonia	-13.1757
▁poc	-13.1757
▁poet	-13.1757
▁poisonous	-13.1757
▁poked	-13.1757
▁poland	-13.1757
▁polentologist	-13.1757
▁policeman	-13.1757
▁policemen	-13.1757
▁policy	-13.1757
▁polish	-13.1757
▁polite	-13.1757
▁politics	-13.1757
▁poll	-13.1757
▁poltergeist	-13.1757
▁pond	-13.1757
▁pondou	-13.1757
▁poo's	-13.1757
▁poofy	-13.1757
▁pools	-13.1757
▁poops	-13.1757
▁poopy	-13.1757
▁pope	-13.1757
▁pops	-13.1757
▁porcupine	-13.1757
▁pork	-13.1757
▁porno	-13.1757
▁pornographic	-13.1757
▁porsch	-13.1757
▁porsching	-13.1757
▁portable	-13.1757
▁portier	-13.1757
▁poseidon	-13.1757
▁poses	-13.1757
▁posing	-13.1757
▁positions	-13.1757
▁positronic	-13.1757
▁possessive	-13.1757
▁possibilities	-13.1757
▁posterior	-13.1757
▁postponing	-13.1757
▁posture	-13.1757
▁potaato	-13.1757
▁potatoe	-13.1757
▁potential	-13.1757
▁potentially	-13.1757
▁potions	-13.1757
▁potter	-13.1757
▁poulet	-13.1757
▁pounding	-13.1757
▁pouviez	-13.1757
▁pow	-13.1757
▁powerbar	-13.1757
▁powered	-13.1757
▁pox	-13.1757
▁praise	-13.1757
▁prance	-13.1757
▁prank	-13.1757
▁prayer	-13.1757
▁preach	-13.1757
▁predicament	-13.1757
▁preferred	-13.1757
▁prehistoric	-13.1757
▁preparation	-13.1757
▁preppy	-13.1757
▁presented	-13.1757
▁preserving	-13.1757
▁pressing	-13.1757
▁pressuring	-13.1757
▁prestigious	-13.1757
▁presumably	-13.1757
▁pretended	-13.1757
▁pretented	-13.1757
▁pretention	-13.1757
▁pretz	-13.1757
▁prevented	-13.1757
▁previously	-13.1757
▁priceless	-13.1757
▁prices	-13.1757
▁priest	-13.1757
▁priesthood	-13.1757
▁priiiize	-13.1757
▁prime	-13.1757
▁primitive	-13.1757
▁princess's	-13.1757
▁prissy	-13.1757
▁procedure	-13.1757
▁proceed	-13.1757
▁proceeds	-13.1757
▁procession	-13.1757
▁producing	-13.1757
▁professing	-13.1757
▁profusion	-13.1757
▁programming	-13.1757
▁progressionist	-13.1757
▁projectile	-13.1757
▁promote	-13.1757
▁promotion	-13.1757
▁pronounces	-13.1757
▁proofread	-13.1757
▁properly	-13.1757
▁proportioned	-13.1757
▁proposals	-13.1757
▁proposes	-13.1757
▁protected	-13.1757
▁protectors	-13.1757
▁protects	-13.1757
▁protein	-13.1757
▁protested	-13.1757
▁prototypes	-13.1757
▁proven	-13.1757
▁provide	-13.1757
▁provided	-13.1757
▁providing	-13.1757
▁provocatively	-13.1757
▁prozac	-13.1757
▁prude	-13.1757
▁pshhshhh	-13.1757
▁psss	-13.1757
▁pssst	-13.1757
▁psych	-13.1757
▁psyched	-13.1757
▁pterodactyl	-13.1757
▁pu	-13.1757
▁puberty	-13.1757
▁publicity	-13.1757
▁puff	-13.1757
▁puke	-13.1757
▁pulls	-13.1757
▁pulp	-13.1757
▁pulse	-13.1757
▁puma	-13.1757
▁pump	-13.1757
▁pumpkins	-13.1757
▁pumps	-13.1757
▁punctuated	-13.1757
▁punished	-13.1757
▁puppets	-13.1757
▁purchasing	-13.1757
▁purebreed	-13.1757
▁purty	-13.1757
▁purvry	-13.1757
▁pushes	-13.1757
▁puzzler	-13.1757
▁pwease	-13.1757
▁pyjama	-13.1757
▁q	-13.1757
▁q.t	-13.1757
▁qu'est	-13.1757
▁quakay	-13.1757
▁quaker	-13.1757
▁qualifications	-13.1757
▁quantity	-13.1757
▁que	-13.1757
▁quickie	-13.1757
▁quilt	-13.1757
▁quincy	-13.1757
▁quirky	-13.1757
▁quiz	-13.1757
▁quotes	-13.1757
▁raa	-13.1757
▁rabbi	-13.1757
▁rabe	-13.1757
▁raber	-13.1757
▁rabid	-13.1757
▁racial	-13.1757
▁racket	-13.1757
▁racquela's	-13.1757
▁racquets	-13.1757
▁radiant	-13.1757
▁radiator	-13.1757
▁radiators	-13.1757
▁radiocarbon	-13.1757
▁radisson	-13.1757
▁radius	-13.1757
▁rae	-13.1757
▁raffia	-13.1757
▁rags	-13.1757
▁raid	-13.1757
▁rail	-13.1757
▁raindrops	-13.1757
▁rainstorm	-13.1757
▁raked	-13.1757
▁rally	-13.1757
▁ram	-13.1757
▁rambling	-13.1757
▁rambo	-13.1757
▁rambunctious	-13.1757
▁ramp	-13.1757
▁random	-13.1757
▁rang	-13.1757
▁rape	-13.1757
▁rapidly	-13.1757
▁rapport	-13.1757
▁raquetball	-13.1757
▁rarely	-13.1757
▁rasputin	-13.1757
▁ratchet	-13.1757
▁rates	-13.1757
▁rational	-13.1757
▁rats	-13.1757
▁rattle	-13.1757
▁rattles	-13.1757
▁raunchy	-13.1757
▁raven	-13.1757
▁raymond	-13.1757
▁rdtor	-13.1757
▁reaching	-13.1757
▁reacted	-13.1757
▁reaction	-13.1757
▁reactor	-13.1757
▁readin	-13.1757
▁readings	-13.1757
▁reaffirms	-13.1757
▁reality	-13.1757
▁realms	-13.1757
▁rear	-13.1757
▁rearrange	-13.1757
▁rearranging	-13.1757
▁reassure	-13.1757
▁rec	-13.1757
▁recall	-13.1757
▁recapture	-13.1757
▁receiving	-13.1757
▁receptionists	-13.1757
▁reciept	-13.1757
▁recieved	-13.1757
▁reciprocate	-13.1757
▁recitals	-13.1757
▁recognition	-13.1757
▁recognized	-13.1757
▁recollection	-13.1757
▁recommend	-13.1757
▁recommended	-13.1757
▁recommending	-13.1757
▁reconcile	-13.1757
▁reconnect	-13.1757
▁recount	-13.1757
▁recover	-13.1757
▁redecorate	-13.1757
▁redid	-13.1757
▁rediscover	-13.1757
▁redo	-13.1757
▁redoing	-13.1757
▁reduction	-13.1757
▁redused	-13.1757
▁ref	-13.1757
▁referenced	-13.1757
▁refill	-13.1757
▁refilled	-13.1757
▁reflect	-13.1757
▁reflection	-13.1757
▁reflexes	-13.1757
▁refresh	-13.1757
▁refrigerators	-13.1757
▁regarding	-13.1757
▁regin	-13.1757
▁region	-13.1757
▁regularly	-13.1757
▁rehab	-13.1757
▁rehack	-13.1757
▁rehearsed	-13.1757
▁reimburse	-13.1757
▁rejected	-13.1757
▁rejections	-13.1757
▁rejects	-13.1757
▁relationshippy	-13.1757
▁relatively	-13.1757
▁relatives	-13.1757
▁relaxed	-13.1757
▁relaxes	-13.1757
▁reliable	-13.1757
▁religious	-13.1757
▁reluctant	-13.1757
▁remain	-13.1757
▁remarkably	-13.1757
▁reminded	-13.1757
▁remotely	-13.1757
▁removal	-13.1757
▁renew	-13.1757
▁renewed	-13.1757
▁renter	-13.1757
▁renting	-13.1757
▁reorganized	-13.1757
▁repaired	-13.1757
▁repeating	-13.1757
▁repeller	-13.1757
▁repercussions	-13.1757
▁repopulate	-13.1757
▁reports	-13.1757
▁representative	-13.1757
▁reproductive	-13.1757
▁reps	-13.1757
▁repulsed	-13.1757
▁reputation	-13.1757
▁requesting	-13.1757
▁require	-13.1757
▁required	-13.1757
▁requires	-13.1757
▁reruns	-13.1757
▁rescue	-13.1757
▁rescued	-13.1757
▁resentful	-13.1757
▁reserve	-13.1757
▁reserved	-13.1757
▁resident	-13.1757
▁residual	-13.1757
▁resistance	-13.1757
▁resolve	-13.1757
▁resort	-13.1757
▁resources	-13.1757
▁respected	-13.1757
▁respond	-13.1757
▁responded	-13.1757
▁responses	-13.1757
▁responsibile	-13.1757
▁responsibilities	-13.1757
▁responsiblity	-13.1757
▁restaurant's	-13.1757
▁restaurants	-13.1757
▁resting	-13.1757
▁restrooms	-13.1757
▁restrung	-13.1757
▁rests	-13.1757
▁results	-13.1757
▁retail	-13.1757
▁retailers	-13.1757
▁retainer	-13.1757
▁retard	-13.1757
▁retiling	-13.1757
▁reunion	-13.1757
▁reunions	-13.1757
▁reunited	-13.1757
▁revenge	-13.1757
▁reviewer	-13.1757
▁reviews	-13.1757
▁revoked	-13.1757
▁revolution	-13.1757
▁revolutionary	-13.1757
▁rex	-13.1757
▁rhymed	-13.1757
▁rhyming	-13.1757
▁rhythm	-13.1757
▁ribbed	-13.1757
▁riboflavin	-13.1757
▁ribs	-13.1757
▁richer	-13.1757
▁richie	-13.1757
▁ridden	-13.1757
▁ridding	-13.1757
▁riddler	-13.1757
▁ride's	-13.1757
▁rider	-13.1757
▁riff	-13.1757
▁rift	-13.1757
▁rigatoni	-13.1757
▁rigby	-13.1757
▁riggs	-13.1757
▁right.I	-13.1757
▁ringwald	-13.1757
▁risked	-13.1757
▁risky	-13.1757
▁rit	-13.1757
▁rita's	-13.1757
▁ritter's	-13.1757
▁rivera	-13.1757
▁rivers	-13.1757
▁roam	-13.1757
▁roams	-13.1757
▁roast	-13.1757
▁roasted	-13.1757
▁rob	-13.1757
▁robbery	-13.1757
▁robbing	-13.1757
▁robbinson	-13.1757
▁robes	-13.1757
▁robin	-13.1757
▁robocop	-13.1757
▁rodney	-13.1757
▁roger's	-13.1757
▁rogue	-13.1757
▁roland	-13.1757
▁rolex	-13.1757
▁rollers	-13.1757
▁rollerson	-13.1757
▁rollin	-13.1757
▁rollll	-13.1757
▁rollos	-13.1757
▁rom	-13.1757
▁roman	-13.1757
▁romana	-13.1757
▁romancer	-13.1757
▁ronni's	-13.1757
▁roomate	-13.1757
▁roommate's	-13.1757
▁rooosss	-13.1757
▁rooting	-13.1757
▁roots	-13.1757
▁rosannadanna	-13.1757
▁roseanne	-13.1757
▁rosoff	-13.1757
▁rossel	-13.1757
▁rossss	-13.1757
▁rosssss	-13.1757
▁rosstepher	-13.1757
▁rot	-13.1757
▁rotten	-13.1757
▁roughly	-13.1757
▁roulettes	-13.1757
▁rounded	-13.1757
▁routing	-13.1757
▁rover	-13.1757
▁roy	-13.1757
▁rrific	-13.1757
▁rrrooossss	-13.1757
▁rsvp	-13.1757
▁ruben	-13.1757
▁rued	-13.1757
▁ruffle	-13.1757
▁rulebook	-13.1757
▁ruled	-13.1757
▁ruler	-13.1757
▁rulers	-13.1757
▁rumour	-13.1757
▁rumours	-13.1757
▁rungs	-13.1757
▁runner	-13.1757
▁runnin	-13.1757
▁rustic	-13.1757
▁rut	-13.1757
▁ruthie	-13.1757
▁rweee	-13.1757
▁ryan	-13.1757
▁s.a.t	-13.1757
▁s.a.t.s	-13.1757
▁sabotaged	-13.1757
▁sachets	-13.1757
▁sacramental	-13.1757
▁saddened	-13.1757
▁saddest	-13.1757
▁saddlebags	-13.1757
▁sadness	-13.1757
▁sage	-13.1757
▁saget	-13.1757
▁saggy	-13.1757
▁sahara	-13.1757
▁sailed	-13.1757
▁saint	-13.1757
▁sajak	-13.1757
▁sak's	-13.1757
▁salads	-13.1757
▁salesman	-13.1757
▁sallidor	-13.1757
▁salmonella	-13.1757
▁sam	-13.1757
▁sanctity	-13.1757
▁sanders	-13.1757
▁sanders?he	-13.1757
▁sane	-13.1757
▁sanford	-13.1757
▁sanitation	-13.1757
▁santos	-13.1757
▁sarongs	-13.1757
▁sateen	-13.1757
▁satellite	-13.1757
▁satisfy	-13.1757
▁satisfying	-13.1757
▁sats	-13.1757
▁saucer	-13.1757
▁saut	-13.1757
▁sauteed	-13.1757
▁savage	-13.1757
▁saver	-13.1757
▁savin	-13.1757
▁savor	-13.1757
▁savory	-13.1757
▁sawyer	-13.1757
▁scammed	-13.1757
▁scan	-13.1757
▁scar	-13.1757
▁scarring	-13.1757
▁scars	-13.1757
▁scarves	-13.1757
▁scatterbrain	-13.1757
▁scenarios	-13.1757
▁scent	-13.1757
▁scented	-13.1757
▁scents	-13.1757
▁schemp	-13.1757
▁schiff	-13.1757
▁schmidgen	-13.1757
▁schmoofer	-13.1757
▁scholars	-13.1757
▁scholarship	-13.1757
▁schoolchildren	-13.1757
▁schoolyard	-13.1757
▁sci	-13.1757
▁scold	-13.1757
▁sconces	-13.1757
▁scooching	-13.1757
▁scoot	-13.1757
▁scotia	-13.1757
▁scotland	-13.1757
▁scotty	-13.1757
▁scout	-13.1757
▁scranton	-13.1757
▁scrape	-13.1757
▁scratching	-13.1757
▁screamer	-13.1757
▁screens	-13.1757
▁scruddle	-13.1757
▁scrum	-13.1757
▁scrunchy	-13.1757
▁scuffed	-13.1757
▁sculpting	-13.1757
▁seahorses	-13.1757
▁seal	-13.1757
▁seals	-13.1757
▁seamstress	-13.1757
▁sean	-13.1757
▁sear	-13.1757
▁seashores	-13.1757
▁seatbelts	-13.1757
▁seaweed	-13.1757
▁secrecy	-13.1757
▁sections	-13.1757
▁sedated	-13.1757
▁sedimentary	-13.1757
▁seeeeen	-13.1757
▁seein	-13.1757
▁seeking	-13.1757
▁segmented	-13.1757
▁seine	-13.1757
▁semen	-13.1757
▁seminar	-13.1757
▁seminars	-13.1757
▁sen	-13.1757
▁seniora	-13.1757
▁senorita	-13.1757
▁sensation	-13.1757
▁sentenced	-13.1757
▁separating	-13.1757
▁separators	-13.1757
▁seperate	-13.1757
▁sequined	-13.1757
▁sergeant	-13.1757
▁sergio	-13.1757
▁serpico	-13.1757
▁serves	-13.1757
▁settling	-13.1757
▁seuss	-13.1757
▁sevenish	-13.1757
▁severe	-13.1757
▁severed	-13.1757
▁sewage	-13.1757
▁sexier	-13.1757
▁sexiest	-13.1757
▁sexist	-13.1757
▁sexless	-13.1757
▁sexretary	-13.1757
▁sha	-13.1757
▁shades	-13.1757
▁shaggy	-13.1757
▁shah	-13.1757
▁shakespeare	-13.1757
▁shakin	-13.1757
▁shallots	-13.1757
▁shampoos	-13.1757
▁shaping	-13.1757
▁sharon	-13.1757
▁sharpened	-13.1757
▁sharpener	-13.1757
▁sharper	-13.1757
▁shaved	-13.1757
▁shaves	-13.1757
▁sheena	-13.1757
▁sheer	-13.1757
▁shellfish	-13.1757
▁shelly	-13.1757
▁shelter	-13.1757
▁sheperd	-13.1757
▁shhhhhh	-13.1757
▁shhhhhhhhh	-13.1757
▁shhst	-13.1757
▁shift	-13.1757
▁shifts	-13.1757
▁shimmy	-13.1757
▁shin	-13.1757
▁shire	-13.1757
▁shirley	-13.1757
▁shirvel	-13.1757
▁shivering	-13.1757
▁shmoshness	-13.1757
▁shocks	-13.1757
▁shook	-13.1757
▁shoots	-13.1757
▁shoplifting	-13.1757
▁shoppers	-13.1757
▁shoppin	-13.1757
▁shore	-13.1757
▁shortbread	-13.1757
▁shortcomings	-13.1757
▁shortest	-13.1757
▁shoulders	-13.1757
▁shove	-13.1757
▁shoves	-13.1757
▁show's	-13.1757
▁showbusiness	-13.1757
▁showcased	-13.1757
▁showdog	-13.1757
▁showered	-13.1757
▁showin	-13.1757
▁showroom	-13.1757
▁showtime	-13.1757
▁shredded	-13.1757
▁shredder	-13.1757
▁shrimp	-13.1757
▁shrinky	-13.1757
▁shrunk	-13.1757
▁shuffle	-13.1757
▁shuffleboard	-13.1757
▁shunned	-13.1757
▁shutdown	-13.1757
▁shuttin	-13.1757
▁shutting	-13.1757
▁si	-13.1757
▁sibling	-13.1757
▁sidekick	-13.1757
▁sidewalk	-13.1757
▁sidney's	-13.1757
▁signal	-13.1757
▁signing	-13.1757
▁silence	-13.1757
▁silently	-13.1757
▁silverman	-13.1757
▁silverware	-13.1757
▁silvie's	-13.1757
▁simply	-13.1757
▁simulates	-13.1757
▁singe	-13.1757
▁sinuses	-13.1757
▁sip	-13.1757
▁sipowicz	-13.1757
▁sipping	-13.1757
▁sistery	-13.1757
▁sites	-13.1757
▁sitter	-13.1757
▁sizeable	-13.1757
▁skaters	-13.1757
▁skates	-13.1757
▁skedaddle	-13.1757
▁skidmark	-13.1757
▁skids	-13.1757
▁skier	-13.1757
▁skimp	-13.1757
▁skinny	-13.1757
▁skits	-13.1757
▁skittish	-13.1757
▁skloff	-13.1757
▁slam	-13.1757
▁slammed	-13.1757
▁slammer	-13.1757
▁slang	-13.1757
▁slaps	-13.1757
▁slather	-13.1757
▁slathering	-13.1757
▁slaughtered	-13.1757
▁sleaze	-13.1757
▁sleeperson	-13.1757
▁sleeps	-13.1757
▁sleighbells	-13.1757
▁slices	-13.1757
▁slick	-13.1757
▁slid	-13.1757
▁slides	-13.1757
▁slim	-13.1757
▁slippers	-13.1757
▁slippery	-13.1757
▁slipping	-13.1757
▁slips	-13.1757
▁slit	-13.1757
▁sliver	-13.1757
▁slo	-13.1757
▁slogans	-13.1757
▁sloppiness	-13.1757
▁slorps	-13.1757
▁slots	-13.1757
▁slowing	-13.1757
▁slowly	-13.1757
▁slowpokes	-13.1757
▁slum	-13.1757
▁slurs	-13.1757
▁sluts	-13.1757
▁sly	-13.1757
▁smacked	-13.1757
▁smacks	-13.1757
▁smarmy	-13.1757
▁smarter	-13.1757
▁smartie	-13.1757
▁smelt	-13.1757
▁smiled	-13.1757
▁smiledon	-13.1757
▁smiley	-13.1757
▁smileys	-13.1757
▁smith	-13.1757
▁smithfield	-13.1757
▁smock	-13.1757
▁smokerson	-13.1757
▁smoldering	-13.1757
▁smoother	-13.1757
▁smoothest	-13.1757
▁smoothy	-13.1757
▁smore	-13.1757
▁smudgey	-13.1757
▁smug	-13.1757
▁snake	-13.1757
▁snapped	-13.1757
▁sneaks	-13.1757
▁sneaky	-13.1757
▁sneezes	-13.1757
▁sniveling	-13.1757
▁snooping	-13.1757
▁snoopy	-13.1757
▁snorkeling	-13.1757
▁snout	-13.1757
▁snowballing	-13.1757
▁snowed	-13.1757
▁snowy	-13.1757
▁snubbed	-13.1757
▁snuck	-13.1757
▁snuffalopagus	-13.1757
▁snug	-13.1757
▁snuggle	-13.1757
▁snuggles	-13.1757
▁snugglyer	-13.1757
▁soak	-13.1757
▁soaked	-13.1757
▁soakin	-13.1757
▁soaps	-13.1757
▁sob	-13.1757
▁sobbing	-13.1757
▁soberly	-13.1757
▁society	-13.1757
▁socket	-13.1757
▁sodas	-13.1757
▁sofa	-13.1757
▁softener	-13.1757
▁softest	-13.1757
▁softly	-13.1757
▁software	-13.1757
▁soggy	-13.1757
▁soho	-13.1757
▁soilder	-13.1757
▁soir	-13.1757
▁soldiers	-13.1757
▁sole	-13.1757
▁soles	-13.1757
▁solider	-13.1757
▁solo	-13.1757
▁solvent	-13.1757
▁sombreros	-13.1757
▁somewhat	-13.1757
▁somone	-13.1757
▁sonoma	-13.1757
▁sons	-13.1757
▁soooo	-13.1757
▁soother	-13.1757
▁sophie's	-13.1757
▁sophomore	-13.1757
▁sor	-13.1757
▁soundtrack	-13.1757
▁sour	-13.1757
▁souvenir	-13.1757
▁soviet	-13.1757
▁sowed	-13.1757
▁sowin	-13.1757
▁sowing	-13.1757
▁spa	-13.1757
▁spackle	-13.1757
▁spain	-13.1757
▁spandex	-13.1757
▁spank	-13.1757
▁spanking	-13.1757
▁sparked	-13.1757
▁sparkle	-13.1757
▁sparky	-13.1757
▁sparrow	-13.1757
▁spas	-13.1757
▁spasim	-13.1757
▁spatters	-13.1757
▁spaz	-13.1757
▁speachless	-13.1757
▁specializing	-13.1757
▁specified	-13.1757
▁spectacularly	-13.1757
▁speeches	-13.1757
▁speedily	-13.1757
▁speeding	-13.1757
▁speedoes	-13.1757
▁speedy	-13.1757
▁spellman	-13.1757
▁spender	-13.1757
▁spends	-13.1757
▁spewing	-13.1757
▁sphinx	-13.1757
▁spinning	-13.1757
▁spins	-13.1757
▁spinster	-13.1757
▁spiritual	-13.1757
▁spiteful	-13.1757
▁spits	-13.1757
▁spitter	-13.1757
▁spittin	-13.1757
▁spitting	-13.1757
▁spleeeeen	-13.1757
▁spleen	-13.1757
▁spock	-13.1757
▁spokesmodel	-13.1757
▁sponge	-13.1757
▁spongy	-13.1757
▁spontaneous	-13.1757
▁spore	-13.1757
▁sportswear	-13.1757
▁spotless	-13.1757
▁spotter	-13.1757
▁spout	-13.1757
▁sprang	-13.1757
▁spraying	-13.1757
▁springing	-13.1757
▁spritzer	-13.1757
▁spritzers	-13.1757
▁sprouting	-13.1757
▁spruce	-13.1757
▁sprung	-13.1757
▁spunky	-13.1757
▁spurred	-13.1757
▁spying	-13.1757
▁squared	-13.1757
▁squash	-13.1757
▁squatternut	-13.1757
▁squeaky	-13.1757
▁squeezed	-13.1757
▁squigy	-13.1757
▁squint	-13.1757
▁squinting	-13.1757
▁squirrels	-13.1757
▁squirts	-13.1757
▁squished	-13.1757
▁squishy	-13.1757
▁ssshhhhttt	-13.1757
▁sssshhhh	-13.1757
▁sssshhhhhh	-13.1757
▁stabbing	-13.1757
▁stabby	-13.1757
▁stability	-13.1757
▁stacked	-13.1757
▁staff	-13.1757
▁stairway	-13.1757
▁stake	-13.1757
▁stalker	-13.1757
▁standby	-13.1757
▁standin	-13.1757
▁stanley	-13.1757
▁star's	-13.1757
▁starbucks	-13.1757
▁starch	-13.1757
▁stares	-13.1757
▁starlet	-13.1757
▁starlight	-13.1757
▁starters	-13.1757
▁startling	-13.1757
▁starve	-13.1757
▁stated	-13.1757
▁static	-13.1757
▁stating	-13.1757
▁statute	-13.1757
▁stead	-13.1757
▁stealer	-13.1757
▁stealers	-13.1757
▁steamed	-13.1757
▁steaming	-13.1757
▁steele	-13.1757
▁steep	-13.1757
▁steered	-13.1757
▁steffi	-13.1757
▁stegosaurus	-13.1757
▁stella	-13.1757
▁stem	-13.1757
▁stemmed	-13.1757
▁stems	-13.1757
▁stenlger	-13.1757
▁stepdad	-13.1757
▁stephanopolus	-13.1757
▁stephanopoulos	-13.1757
▁sterile	-13.1757
▁stevenson	-13.1757
▁stewart	-13.1757
▁stewing	-13.1757
▁sticker	-13.1757
▁stickers	-13.1757
▁stifle	-13.1757
▁stil	-13.1757
▁stings	-13.1757
▁stingy	-13.1757
▁stinkers	-13.1757
▁stitches	-13.1757
▁stocked	-13.1757
▁stomped	-13.1757
▁stopper	-13.1757
▁storing	-13.1757
▁storming	-13.1757
▁stove	-13.1757
▁strain	-13.1757
▁strained	-13.1757
▁strapping	-13.1757
▁strappy	-13.1757
▁strappys	-13.1757
▁straw	-13.1757
▁strawberries	-13.1757
▁straws	-13.1757
▁streaking	-13.1757
▁streetlight	-13.1757
▁streisand	-13.1757
▁strengths	-13.1757
▁stretch	-13.1757
▁stretches	-13.1757
▁stretchy	-13.1757
▁strewn	-13.1757
▁strictly	-13.1757
▁strive	-13.1757
▁stroke	-13.1757
▁strokes	-13.1757
▁stroll	-13.1757
▁structure	-13.1757
▁struggle	-13.1757
▁stuart	-13.1757
▁stubborn	-13.1757
▁stud	-13.1757
▁studies	-13.1757
▁studio	-13.1757
▁stuffy	-13.1757
▁stumble	-13.1757
▁stun	-13.1757
▁stunt	-13.1757
▁stunted	-13.1757
▁stupider	-13.1757
▁sturdier	-13.1757
▁styles	-13.1757
▁suave	-13.1757
▁subconscious	-13.1757
▁subconsciously	-13.1757
▁subletted	-13.1757
▁submit	-13.1757
▁subscription	-13.1757
▁substances	-13.1757
▁substantial	-13.1757
▁substitute	-13.1757
▁subtract	-13.1757
▁suburbs	-13.1757
▁succeed	-13.1757
▁suckers	-13.1757
▁suckin	-13.1757
▁suffer	-13.1757
▁suffering	-13.1757
▁sugarless	-13.1757
▁suggestions	-13.1757
▁suitable	-13.1757
▁suitcase	-13.1757
▁suitcases	-13.1757
▁suited	-13.1757
▁suites	-13.1757
▁suits	-13.1757
▁suity	-13.1757
▁summertime	-13.1757
▁sunburnt	-13.1757
▁sundays	-13.1757
▁sunglass	-13.1757
▁sunglasses	-13.1757
▁sunken	-13.1757
▁sunlight	-13.1757
▁sunrise	-13.1757
▁superficial	-13.1757
▁supergay	-13.1757
▁superhuman	-13.1757
▁superintendent	-13.1757
▁superstar	-13.1757
▁supervisors	-13.1757
▁supple	-13.1757
▁supremes	-13.1757
▁suprise	-13.1757
▁suprisingly	-13.1757
▁surefire	-13.1757
▁surely	-13.1757
▁surfer	-13.1757
▁surfing	-13.1757
▁surgeons	-13.1757
▁surprising	-13.1757
▁surreal	-13.1757
▁surrey	-13.1757
▁sus	-13.1757
▁susanne	-13.1757
▁sush	-13.1757
▁sushi's	-13.1757
▁suspected	-13.1757
▁suspects	-13.1757
▁sutra	-13.1757
▁sven	-13.1757
▁sw	-13.1757
▁swab	-13.1757
▁swallowed	-13.1757
▁swallowing	-13.1757
▁swam	-13.1757
▁swan	-13.1757
▁swans	-13.1757
▁sweatpants	-13.1757
▁swede	-13.1757
▁sweepin	-13.1757
▁sweets	-13.1757
▁swell	-13.1757
▁swims	-13.1757
▁swimsuits	-13.1757
▁swing's	-13.1757
▁swingset	-13.1757
▁switzerland	-13.1757
▁swoggle	-13.1757
▁swollen	-13.1757
▁sword	-13.1757
▁sydney	-13.1757
▁symbolic	-13.1757
▁symbolising	-13.1757
▁symbols	-13.1757
▁sympathetic	-13.1757
▁synchronized	-13.1757
▁syrup	-13.1757
▁systems	-13.1757
▁t's	-13.1757
▁t.g.i	-13.1757
▁taboo	-13.1757
▁tackled	-13.1757
▁tackling	-13.1757
▁tad	-13.1757
▁tada	-13.1757
▁tah	-13.1757
▁tailpipe	-13.1757
▁tainer	-13.1757
▁talkies	-13.1757
▁talky	-13.1757
▁tamburino	-13.1757
▁tamer	-13.1757
▁tampon	-13.1757
▁tangle	-13.1757
▁tangled	-13.1757
▁tango	-13.1757
▁tapdance	-13.1757
▁taping	-13.1757
▁tapped	-13.1757
▁tarantulas	-13.1757
▁tart	-13.1757
▁tartlet	-13.1757
▁tartlets	-13.1757
▁tarzan	-13.1757
▁task	-13.1757
▁tassels	-13.1757
▁tastefully	-13.1757
▁tastiness	-13.1757
▁tastrophe	-13.1757
▁tat	-13.1757
▁tattletale	-13.1757
▁tattoo	-13.1757
▁tattoos	-13.1757
▁taurus	-13.1757
▁taxing	-13.1757
▁tay	-13.1757
▁tcssh	-13.1757
▁te	-13.1757
▁teachin	-13.1757
▁tearing	-13.1757
▁techincally	-13.1757
▁technicality	-13.1757
▁technique	-13.1757
▁tedeski	-13.1757
▁tedlock	-13.1757
▁tee	-13.1757
▁teensy	-13.1757
▁teflon	-13.1757
▁tember	-13.1757
▁temperature	-13.1757
▁temple	-13.1757
▁tempted	-13.1757
▁teramisu	-13.1757
▁tern	-13.1757
▁terns	-13.1757
▁terrace	-13.1757
▁terrfic	-13.1757
▁terrified	-13.1757
▁terrifying	-13.1757
▁terrorists	-13.1757
▁testacles	-13.1757
▁testament	-13.1757
▁testicles	-13.1757
▁testosteroney	-13.1757
▁testy	-13.1757
▁tetris	-13.1757
▁thai	-13.1757
▁thailand	-13.1757
▁thankfully	-13.1757
▁thanksgivingy	-13.1757
▁thankyou	-13.1757
▁tharp	-13.1757
▁thata	-13.1757
▁thatcher	-13.1757
▁thatthat	-13.1757
▁thatthat's	-13.1757
▁theft	-13.1757
▁themes	-13.1757
▁theodore	-13.1757
▁theorem	-13.1757
▁therefore	-13.1757
▁thetoughest	-13.1757
▁they'r	-13.1757
▁thieves	-13.1757
▁thighmaster	-13.1757
▁thingies	-13.1757
▁thinker	-13.1757
▁thinkers	-13.1757
▁thinnest	-13.1757
▁thirst	-13.1757
▁thirteen	-13.1757
▁thirties	-13.1757
▁this?you	-13.1757
▁thissa	-13.1757
▁thongs	-13.1757
▁thorns	-13.1757
▁thrash	-13.1757
▁threat	-13.1757
▁three's	-13.1757
▁threefold	-13.1757
▁threesome	-13.1757
▁threshold	-13.1757
▁thrice	-13.1757
▁throbbing	-13.1757
▁throwin	-13.1757
▁thug	-13.1757
▁thump	-13.1757
▁thurs	-13.1757
▁thx	-13.1757
▁tibet	-13.1757
▁tibidabo	-13.1757
▁tibidaybo	-13.1757
▁ticker	-13.1757
▁ticking	-13.1757
▁tickled	-13.1757
▁tide	-13.1757
▁tied	-13.1757
▁tiered	-13.1757
▁ties	-13.1757
▁tighten	-13.1757
▁tighty	-13.1757
▁tiki	-13.1757
▁tilt	-13.1757
▁timely	-13.1757
▁tin	-13.1757
▁tina	-13.1757
▁tineals	-13.1757
▁tingly	-13.1757
▁tinker	-13.1757
▁tinted	-13.1757
▁tit	-13.1757
▁tivo	-13.1757
▁toenails	-13.1757
▁tofu	-13.1757
▁toga	-13.1757
▁tollhouse	-13.1757
▁tolouse	-13.1757
▁tomatos	-13.1757
▁tommyyyy	-13.1757
▁tongues	-13.1757
▁tonight's	-13.1757
▁tonka	-13.1757
▁tonsil	-13.1757
▁tony's	-13.1757
▁took'them	-13.1757
▁toootal	-13.1757
▁toothier	-13.1757
▁toothless	-13.1757
▁toothpaste	-13.1757
▁toothpick	-13.1757
▁toothpicks	-13.1757
▁toots	-13.1757
▁torch	-13.1757
▁tore	-13.1757
▁torme	-13.1757
▁tormenting	-13.1757
▁tornado	-13.1757
▁torts	-13.1757
▁tosses	-13.1757
▁toucher	-13.1757
▁touchy	-13.1757
▁toughie	-13.1757
▁toulouse	-13.1757
▁tourists	-13.1757
▁touristy	-13.1757
▁tournaments	-13.1757
▁tours	-13.1757
▁tout	-13.1757
▁toute	-13.1757
▁toutes	-13.1757
▁tow	-13.1757
▁towed	-13.1757
▁tower	-13.1757
▁towners	-13.1757
▁trace	-13.1757
▁tracked	-13.1757
▁tracy	-13.1757
▁traditionally	-13.1757
▁traditions	-13.1757
▁tragically	-13.1757
▁traipsing	-13.1757
▁tramp	-13.1757
▁trampled	-13.1757
▁trampoline	-13.1757
▁trans	-13.1757
▁transaction	-13.1757
▁transferring	-13.1757
▁transition	-13.1757
▁translucent	-13.1757
▁transplanted	-13.1757
▁traps	-13.1757
▁trashed	-13.1757
▁trashy	-13.1757
▁traveled	-13.1757
▁traveller	-13.1757
▁treating	-13.1757
▁treatment	-13.1757
▁trebek	-13.1757
▁trek	-13.1757
▁trembling	-13.1757
▁trench	-13.1757
▁tress	-13.1757
▁tri	-13.1757
▁triassic	-13.1757
▁trib	-13.1757
▁tribbiani's	-13.1757
▁tribe's	-13.1757
▁triceps	-13.1757
▁tricking	-13.1757
▁tricks	-13.1757
▁trident	-13.1757
▁tries	-13.1757
▁trimester	-13.1757
▁trimmer	-13.1757
▁trio	-13.1757
▁trips	-13.1757
▁tris	-13.1757
▁trisc	-13.1757
▁triscadecaphobia	-13.1757
▁trolls	-13.1757
▁troopers	-13.1757
▁troops	-13.1757
▁tropic	-13.1757
▁trorro	-13.1757
▁trrrribbiani	-13.1757
▁trucks	-13.1757
▁trunk	-13.1757
▁trusts	-13.1757
▁trusty	-13.1757
▁truthfully	-13.1757
▁tssst	-13.1757
▁tube	-13.1757
▁tugging	-13.1757
▁tull	-13.1757
▁tune	-13.1757
▁tunnels	-13.1757
▁turf	-13.1757
▁turkeys	-13.1757
▁turtleneck	-13.1757
▁tuscadero	-13.1757
▁tuschy	-13.1757
▁tutu	-13.1757
▁tweed	-13.1757
▁twelfth	-13.1757
▁twenties	-13.1757
▁twig	-13.1757
▁twila	-13.1757
▁twinkle	-13.1757
▁twit	-13.1757
▁twizlers	-13.1757
▁two's	-13.1757
▁tyler	-13.1757
▁typed	-13.1757
▁typist	-13.1757
▁typographical	-13.1757
▁tyrannosaurus	-13.1757
▁tyson	-13.1757
▁tzz	-13.1757
▁uberveiss	-13.1757
▁uchh	-13.1757
▁uff	-13.1757
▁ufff	-13.1757
▁ughh	-13.1757
▁ughhhh	-13.1757
▁uhhhhhh	-13.1757
▁uhhuh	-13.1757
▁ultra	-13.1757
▁umbrella	-13.1757
▁ummmm	-13.1757
▁ummmmmmmm	-13.1757
▁unable	-13.1757
▁unanswerable	-13.1757
▁unattainable	-13.1757
▁unavailable	-13.1757
▁unborn	-13.1757
▁uncircumcised	-13.1757
▁unclench	-13.1757
▁uncles	-13.1757
▁unconstituional	-13.1757
▁uncontrollable	-13.1757
▁uncoordinated	-13.1757
▁undefeated	-13.1757
▁undercover	-13.1757
▁undergraduate	-13.1757
▁underground	-13.1757
▁underlined	-13.1757
▁undermine	-13.1757
▁underpant	-13.1757
▁underprivileged	-13.1757
▁understandable	-13.1757
▁understudy	-13.1757
▁underwire	-13.1757
▁undies	-13.1757
▁undone	-13.1757
▁undressing	-13.1757
▁unearthed	-13.1757
▁uneven	-13.1757
▁unfaithful	-13.1757
▁unforgivable	-13.1757
▁unfroze	-13.1757
▁unfulfilling	-13.1757
▁unhappiness	-13.1757
▁unicorn	-13.1757
▁union	-13.1757
▁uniqueness	-13.1757
▁unisex	-13.1757
▁united	-13.1757
▁unleash	-13.1757
▁unlikely	-13.1757
▁unlimited	-13.1757
▁unload	-13.1757
▁unmistakable	-13.1757
▁unmm	-13.1757
▁unpacking	-13.1757
▁unprecedented	-13.1757
▁unraveled	-13.1757
▁unsafe	-13.1757
▁unscheduled	-13.1757
▁unscrew	-13.1757
▁unselfish	-13.1757
▁unstoppable	-13.1757
▁unsuitable	-13.1757
▁unsupported	-13.1757
▁unsupporting	-13.1757
▁untangle	-13.1757
▁untangled	-13.1757
▁untrue	-13.1757
▁unwanted	-13.1757
▁unwilling	-13.1757
▁unwitting	-13.1757
▁unyielding	-13.1757
▁up's	-13.1757
▁upcoming	-13.1757
▁update	-13.1757
▁uplifted	-13.1757
▁upper	-13.1757
▁upscale	-13.1757
▁upsets	-13.1757
▁upto	-13.1757
▁ur	-13.1757
▁urethra	-13.1757
▁urghh	-13.1757
▁urinal	-13.1757
▁urine	-13.1757
▁urn	-13.1757
▁urrgh	-13.1757
▁usa	-13.1757
▁usage	-13.1757
▁useless	-13.1757
▁uso	-13.1757
▁utilities	-13.1757
▁utility	-13.1757
▁vacated	-13.1757
[...]
